[PAD]
[UNK]
[CLS]
[SEP]
[MASK]
[HASH]
[CODE]
[USER]
!
"
#
$
%
&
'
(
)
*
+
,
-
.
/
0
1
2
3
4
5
6
7
8
9
:
;
<
=
>
?
@
A
C
D
E
H
O
R
S
U
[
\
]
^
_
`
a
b
c
d
e
f
g
h
i
j
k
l
m
n
o
p
q
r
s
t
u
v
w
x
y
z
{
|
}
~
¡
¢
£
¤
¥
¦
§
¨
©
ª
«
¬
®
¯
°
±
²
³
´
µ
¶
·
¸
¹
º
»
¼
½
¾
¿
×
ß
æ
ð
ø
þ
đ
ı
ł
œ
ƒ
ǃ
ə
α
β
γ
δ
ε
η
θ
ι
κ
λ
μ
ν
ο
π
ρ
ς
σ
τ
υ
φ
ω
а
б
в
г
д
е
ж
з
и
к
л
м
н
о
п
р
с
т
у
ф
х
ц
ч
ш
щ
ы
ь
э
ю
я
і
א
ב
ג
ד
ה
ו
ט
י
ל
מ
ן
נ
ס
ק
ר
ש
ת
ا
ب
ت
ج
ح
د
ر
ز
س
ش
ع
غ
ف
ك
ل
م
ن
ه
و
ي
ک
گ
ی
क
न
र
ा
ि
া
น
อ
า
เ
ა
ი
ᄀ
ᄂ
ᄃ
ᄅ
ᄆ
ᄇ
ᄉ
ᄋ
ᄌ
ᄎ
ᄏ
ᄐ
ᄑ
ᄒ
ᅡ
ᅢ
ᅣ
ᅥ
ᅦ
ᅧ
ᅨ
ᅩ
ᅪ
ᅬ
ᅭ
ᅮ
ᅯ
ᅱ
ᅲ
ᅳ
ᅴ
ᅵ
ᆨ
ᆫ
ᆯ
ᆷ
ᆸ
ᆺ
ᆻ
ᆼ
ᕦ
‐
‑
–
—
―
‘
’
‚
„
†
•
…
›
€
™
ℹ
←
↑
→
↓
↘
↙
↵
⇒
−
√
≤
≥
⌘
⏳
─
━
│
┄
┆
└
┘
├
┬
═
║
╔
╪
▀
▄
▇
█
▊
░
▒
▓
■
▲
▶
▸
▼
●
★
☝
☺
♀
♂
⚠
⚡
✅
✌
✍
✓
✔
✖
✗
✘
✨
❌
❓
❤
➜
➟
➡
➤
⠀
⭐
⸮
、
。
《
》
「
」
【
】
い
う
か
こ
し
す
た
て
と
な
に
の
は
ま
る
れ
を
ア
ィ
イ
ク
コ
シ
ス
タ
ッ
ツ
テ
ト
ハ
フ
ラ
リ
ル
ロ
ン
・
ー
一
三
上
下
不
与
且
业
两
个
中
为
主
么
义
之
也
习
书
了
事
二
于
些
交
享
人
什
从
他
代
令
以
们
件
任
优
会
传
似
但
位
体
何
作
你
使
例
供
依
便
保
信
修
候
值
做
停
傲
像
元
先
克
入
全
公
关
其
具
内
再
写
决
况
几
出
击
函
分
切
列
则
创
初
删
利
别
到
制
前
力
功
加
务
动
助
包
化
区
十
升
午
卐
单
博
卡
即
原
去
参
及
反
发
取
变
口
句
只
可
台
号
合
同
名
后
向
吗
否
吧
启
告
员
呢
周
呺
命
和
品
哈
哪
啊
喜
器
回
因
国
图
在
地
址
块
型
域
基
填
境
增
处
备
复
外
多
够
大
天
太
失
头
好
如
始
子
字
存
学
它
安
完
官
定
实
客
家
容
密
对
导
将
小
少
尔
就
层
屏
展
属
工
己
已
布
希
带
帮
常
幕
平
年
并
序
库
应
度
建
开
异
式
引
强
当
录
影
径
很
得
微
德
心
必
志
快
态
怎
思
性
总
恭
息
您
情
想
意
感
成
我
或
战
截
户
所
手
才
打
执
找
技
抄
把
报
拉
择
拿
持
指
按
挑
换
据
掉
排
接
控
推
描
提
插
搜
播
操
支
收
改
放
效
教
数
整
文
断
斯
新
方
无
日
时
明
易
星
是
显
更
最
月
有
服
望
期
未
本
机
权
条
来
板
构
析
果
架
查
标
样
根
格
框
案
档
检
模
次
止
正
此
步
段
每
比
求
没
法
注
流
测
浏
消
添
清
源
点
然
照
爬
爷
爾
片
版
特
状
猫
环
现
理
生
用
由
电
界
登
的
目
直
相
看
真
知
码
确
示
社
种
移
程
空
立
站
章
端
符
第
等
答
签
简
算
管
类
系
素
索
级
线
组
细
经
结
给
络
统
继
续
编
网
置
翻
考
者
而
能
脚
自
致
色
节
英
范
获
薇
薛
行
表
被
装
要
见
规
视
览
解
言
计
认
议
记
论
设
访
证
识
词
译
试
话
询
该
详
语
误
说
请
读
调
谔
谢
象
败
货
贴
资
起
超
路
跳
转
软
载
辑
输
边
过
运
返
还
这
进
连
述
追
送
选
通
速
道
那
邮
部
都
配
里
重
量
金
链
错
键
长
闭
问
间
阅
际
限
除
集
需
非
面
音
页
项
预
频
题
骄
验
骤
高
默
﹕
﹠
！
（
）
，
：
；
？
＼
𝓔
𝓤
🌍
🌮
🌴
🍻
🎉
🎊
🏻
🏼
🏽
🐛
🐞
👀
👉
👋
👌
👍
👎
👏
💃
💙
💛
💡
💥
💩
💪
💯
💻
📌
📖
📝
🔅
🔍
🔔
🔥
🔩
🖕
😀
😁
😂
😃
😄
😅
😆
😉
😊
😍
😎
😕
😛
😞
😢
😬
😭
😸
🙂
🙇
🙈
🙌
🙏
🚀
🚢
🚨
🛑
🤔
🤖
🤣
🤦
🤷
🥇
##c
##r
##o
##l
##b
##a
##d
##i
##s
##p
##e
##y
##t
##n
##q
##u
##9
##8
##0
##°
##7
##4
##6
##f
##2
##1
##k
##h
##5
##3
##g
##m
##v
##w
##j
##z
##x
##о
##т
##в
##н
##с
##и
##ᅡ
##ᆫ
##ᄃ
##ᄒ
##ᄋ
##ᅧ
##ᆻ
##ᅳ
##ᄆ
##ᄅ
##ᅩ
##а
##و
##ا
##£
##≥
##р
##´
##±
##º
##י
##נ
##ד
##ן
##€
##ᅦ
##ᄉ
##ᄐ
##ᄇ
##ᄀ
##ᆼ
##ᅵ
##ᅢ
##ᆨ
##ン
##を
##¤
##¦
##б
##²
##е
##र
##ा
##ش
##д
##ᄌ
##×
##ω
##г
##≤
##м
##ш
##л
##я
##─
##δ
##て
##は
##ᅨ
##ᅥ
##ᆸ
##リ
##シ
##ル
##ト
##ラ
##ッ
##ク
##━
##क
##🚢
##🌴
##ᆯ
##к
##з
##у
##▒
##і
##ו
##ס
##ט
##¸
##æ
##ن
##ب
##た
##の
##ф
##ц
##ь
##ᄎ
##ᅮ
##ᄂ
##ᄑ
##ᅭ
##د
##ی
##ᅬ
##♂
##¹
##👍
##œ
##¢
##া
##ー
##ハ
##い
##る
##う
##と
##な
##σ
##ι
##ο
##γ
##κ
##α
##ς
##¾
##ف
##▀
##▄
##█
##す
##↓
##ч
##¨
##¬
##½
##╪
##┘
##م
##😃
##ス
##ð
##µ
##υ
##ν
##ε
##¼
##に
##ま
##か
##ᄏ
##☺
##ᅪ
##п
##ل
##ج
##ت
##ع
##ي
##ᆷ
##ß
##³
##−
##τ
##ρ
##ת
##™
##テ
##フ
##φ
##ᅱ
##¯
##↑
##←
##→
##β
##し
##ы
##ל
##א
##🏼
##π
##μ
##😀
##®
##ᅴ
##┬
##λ
##ر
##ز
##η
##ᅲ
##▶
##🔥
##●
##đ
##ж
##⠀
##│
##😁
##ı
##ə
##þ
##✅
##ю
##ƒ
##タ
##ג
##ב
##れ
##イ
##❤
##🎉
##ł
##☝
##║
##👌
##ᆺ
##こ
##✨
##ア
##щ
##😄
##👏
##🎊
##▓
##ᅣ
##🚀
##ø
##ि
##ר
##¥
##🏻
##ה
##コ
##э
##х
##░
##ه
##ィ
##מ
##น
##อ
##เ
##า
##ロ
##ح
##س
##©
##ᅯ
##➤
##🙈
##✔
##ª
##🙌
##♀
##√
##न
##🐛
##✖
##ק
##ა
##😅
##😉
##ツ
##ك
##👋
##├
##😂
##😆
##گ
##θ
##😍
##🔅
##┄
##🐞
##↵
##★
##غ
##ש
##✌
##🙂
##ک
##═
##🤦
##▇
##👎
##❓
##ი
##⌘
##😊
##⚡
##❌
##😕
##🍻
##💪
##💥
##└
##😞
##💃
##╔
##✍
##➡
##🙇
##💩
##🤔
##🙏
##😭
##■
##🏽
##ℹ
##▲
##⚠
##💯
##🤣
##👀
##😬
##🥇
##▊
##⭐
##😛
##⇒
##🌮
##💛
##😸
##➜
##👉
##😢
##▼
##✓
##A
##S
##H
##🚨
##💻
##😎
##💡
##✗
##▸
##✘
##↙
##↘
##🔍
##🤖
##💙
##🛑
##𝓔
##🔔
##🤷
##📖
##ǃ
##ᕦ
##🌍
##┆
##𝓤
##📌
##⏳
##U
##🔩
##📝
##🖕
##O
##E
##➟
##C
##D
##R
th
##er
##in
##es
##on
##at
##or
the
##en
##ed
##ou
##an
##ing
##it
to
##le
##om
in
##re
##ll
##ion
##st
an
re
##ar
##ct
##et
is
##is
##as
##ic
##ot
##al
##ent
##ro
##de
com
##ut
you
and
##est
it
##ow
for
##il
##ith
##ve
##ch
of
##ce
##tt
st
##am
be
on
us
##ps
wh
this
##ad
htt
##ge
li
co
##ck
fi
ma
con
that
not
de
##ate
##pp
##ub
##ld
pro
https
CO
##DE
CODE
##ri
##ation
ex
##ver
do
##ly
##un
##ab
ch
with
ad
##ay
##pt
as
##all
##ig
se
lo
##ers
##ke
##lo
##um
##id
##ort
##ew
##ur
##ere
or
test
##ul
##ould
##ess
##im
ha
##se
fr
##ect
##qu
add
code
##od
can
##if
##ter
we
##ue
##em
up
sh
##00
##ra
##ull
if
##age
un
but
##ment
from
##ks
so
su
have
##ore
cl
##ithub
github
##th
##ase
##pl
##pe
im
##ction
##ill
wor
en
##ack
##ple
##ag
al
bu
tr
are
##ame
iss
pull
##el
##and
app
your
at
US
##ER
USER
##av
##ust
ne
my
po
lin
##ail
comm
##us
by
##ble
pr
##rr
##able
##end
use
cont
fix
##quest
##per
##rc
som
HA
##SH
HASH
qu
no
chan
dat
all
get
##ass
upd
##ant
##ated
20
##fer
##oo
when
##art
int
##oun
##ster
file
##vi
##ject
res
##so
##ult
will
ac
##ild
##ain
work
##out
##ally
mo
sc
##ht
err
inst
io
##ex
pl
##int
##ind
than
issue
src
##eth
error
##ir
like
##con
##ist
##ity
any
vers
run
there
ser
master
version
##atch
set
##ol
##act
##ure
##iz
using
should
comp
need
what
rep
new
##ick
data
##one
##mo
how
out
build
##cl
##ach
ab
fun
would
##ive
##ich
me
##ard
request
ar
##cess
some
ty
##lease
##ption
##os
val
##ine
doc
jav
mer
##iv
go
js
cre
##orm
which
function
##ml
##ime
##ight
was
lib
##ug
ap
##ary
##ance
##co
##ber
##ite
just
conf
##ice
update
commit
##rect
##fin
##eck
org
am
201
does
vi
##our
11
op
one
log
##ial
10
str
sy
sp
##ound
supp
##ues
user
loo
has
fil
##ss
##ref
##ory
fo
##ca
mod
le
java
##gr
##ning
##ath
br
check
more
id
##ext
here
##up
read
##ens
##ff
py
##ication
only
http
##ting
##form
##ast
dis
##ong
call
hel
exp
see
support
num
merge
##der
then
##ead
try
##ace
##ile
##ages
want
##blem
##rl
##ies
also
pre
ev
aut
problem
into
added
##ob
port
##read
class
now
dif
##view
ob
##ign
##ac
##ther
remo
##ery
##ions
change
##cept
det
ph
web
make
##ans
par
don
##ph
##own
url
##fined
time
blo
##rib
des
thanks
##use
href
chang
##put
ke
inter
##ser
12
man
wr
per
##ink
##ethod
##are
##oug
help
could
##ec
other
##ample
spe
config
project
##ails
list
number
name
##ide
ret
act
gre
open
same
type
##low
way
line
##ript
di
please
sub
files
link
dep
accept
##du
issues
##ry
em
kn
##load
fe
sim
##ree
method
##com
unde
##ource
##ft
##ved
##oth
##ip
form
pack
undefined
af
##ap
imp
##ener
##urr
##vice
server
fir
##ument
##ari
col
##anch
##ator
portal
##enc
start
##ang
el
##llow
bug
def
about
##ak
ht
##ern
think
loc
##urn
tra
view
##request
ag
##ud
cor
branch
##ence
##ems
##ough
ho
fn
##ible
##li
follow
spec
example
##ments
first
may
after
##ition
object
tests
html
docs
net
##ows
##cause
##ql
because
them
##ize
quest
##ient
part
te
create
value
load
##row
stat
##cont
sol
job
tri
15
##lect
back
install
##urrent
##les
##te
pullrequest
gener
bet
fail
##ress
##boo
look
ass
text
details
know
##ord
inf
acceptance
##ault
api
ext
##ating
##gg
##64
mess
##stem
##ep
clo
he
##io
page
14
result
batch
##ribut
command
ed
##80
##iss
they
mode
##lean
current
tw
pass
13
node
option
##10
string
used
ans
##bo
16
where
##ous
key
over
incl
quick
md
hand
return
##cov
ve
trans
codecov
##ule
##20
es
##dex
fixed
differ
##ify
##ash
gr
did
green
instead
##ount
post
##ays
release
vari
direct
init
##ome
##fore
av
##ark
##po
default
proper
gu
works
wind
case
##eper
##ugin
review
image
td
imple
##ations
##11
##xt
ro
##roll
att
system
##ork
find
still
##gin
##oc
##ish
remove
##ty
someth
19
##keeper
##ual
##ng
deve
##ise
desc
something
##nect
following
down
ever
greenkeeper
running
##arch
implement
fl
##be
source
reg
##ates
report
deb
answ
##thon
doesn
dev
##dk
cover
##ix
##op
bas
##eld
##23
##ake
sure
rel
ref
document
17
##ution
plugin
##86
changes
sa
git
lifer
liferay
##ually
ll
event
exec
##ru
before
##ese
path
been
appl
ca
##56
requ
updated
##ets
depend
under
process
script
png
min
##books
end
rec
local
working
##90
inv
correct
python
output
right
appro
every
##me
##ustom
ci
##ving
edit
refer
sin
##ton
found
##50
typ
answer
feat
poss
##ules
##ification
##12
##ache
##ww
##edi
point
different
custom
##pon
contain
quickbooks
gh
click
info
core
ut
kub
these
##umm
each
##32
develo
urls
cr
##ifi
##60
main
show
application
##ative
table
auth
bo
client
debug
why
##ected
libr
php
##0000
thread
connect
##raph
comment
##lf
question
##57
00
18
0x
##cc
beh
package
##ib
##ax
##mit
blob
##14
since
diff
message
content
goo
arr
##ci
thing
##wn
##ire
##py
mult
tem
again
##ux
##user
sw
##99
trying
goog
ele
ent
its
select
##ically
##ception
state
##16
##roid
bit
comple
mem
www
images
22
dele
json
##sp
summ
##ose
war
##17
field
##res
access
##content
##other
##13
lat
##we
##ask
two
##yn
seems
pri
##ever
service
without
param
last
good
##ert
##get
##play
well
##ron
##js
##ude
tried
index
##ie
possible
setting
import
happ
model
android
stack
##vis
format
progr
scre
head
##min
summary
##cond
##ernet
##ted
tree
##not
##ernetes
ori
kubernetes
##18
##rodu
##sc
##54
block
tool
pub
##ors
##led
##par
ide
rem
users
##ready
##avi
even
google
another
##52
done
inte
inform
##19
##ute
aw
##thing
23
##leanup
ran
const
off
acc
already
windows
##lint
button
##000
very
##53
initial
##line
##ular
status
array
##pro
sm
solution
##ames
might
##file
##plic
##usercontent
behavi
##nal
sty
red
##oud
##ins
##flow
24
githubusercontent
too
mu
##ear
able
##aa
clos
input
tag
##24
graph
origin
failed
library
##amew
module
##84
information
types
publ
##onent
##vid
##ility
##ote
created
being
develop
cons
##87
search
long
##ream
rest
let
sugg
suggest
exist
##back
##ctions
miss
oper
configur
hi
##ical
##94
##tc
11e
functional
readme
syn
component
char
##vers
##sql
tit
however
really
respon
##ract
full
##83
send
valid
30
size
chr
while
both
##ont
lang
sv
thank
##ik
##ific
include
own
better
##aw
##ensh
had
modules
##27
contribut
adding
##ency
next
sign
##osit
multi
notification
values
eslint
allow
arg
second
order
mak
mark
##pm
tim
fin
met
##val
##df
##ful
query
removed
much
looks
feature
bl
variable
ok
eas
40
##ics
sl
date
warning
phone
##ices
##vel
brow
paramet
##umn
produ
got
##59
##abel
datab
##sh
##ender
title
##cre
mic
##2e
mysql
bot
display
##30
thr
wid
##ken
changed
null
##70
##ell
##ified
expected
templ
##ata
xml
##lder
jdk
##db
program
home
patch
ste
put
tab
os
##ging
##stand
coverage
200
##ler
yes
##ably
##side
vis
actually
micro
##app
##ift
below
##ms
##ason
column
compil
##34
note
##log
our
write
##29
mat
span
avail
most
tar
through
##mc
##66
##15
##ring
##ner
autom
##itt
##oup
cal
##37
##vent
##vert
##dle
##cker
repl
##og
getting
giv
linux
play
##ways
100
true
##cript
##ures
##89
prob
04
##ases
reposit
##code
##ription
fixes
27
base
##ho
resol
database
tech
understand
behavior
##amework
##query
##ove
available
##gn
requir
sk
sch
logs
wrong
##man
reference
simple
such
##ager
ms
##fe
exception
provid
above
##rol
sql
##67
div
01
lay
art
##ged
##roller
64
missing
##55
suc
maybe
cloud
includ
reason
stor
those
always
email
match
dec
results
##ger
bin
via
fine
##vious
sing
##work
documentation
##mb
comments
address
pe
etc
##ized
sec
mon
currently
db
##cleanup
##lear
ind
take
top
site
##az
##88
ui
##bu
tm
##loy
doing
sn
##oid
copy
ter
##ven
##box
reprodu
were
their
task
##ush
jdk8
math
say
probably
##soft
directory
mac
##fs
##ense
ver
move
boo
##22
many
##36
cc
29
related
single
print
keep
builds
##ling
rele
host
##sole
26
##ween
non
repository
questions
dist
##ced
09
##enk
react
packages
errors
##ys
##time
based
##ware
prot
between
##vide
##40
download
activ
##atform
word
##igh
##ird
device
##mod
css
expl
##aps
style
##iting
03
map
render
lot
opt
integr
##pack
##ok
##ump
fal
##8s
notifications
##ourc
multiple
apps
##point
##eng
##rid
common
##77
who
pi
names
configuration
description
perform
02
cannot
##ization
property
microsoft
2019
impro
strong
having
##inter
template
##33
clear
going
latest
##enkins
##ower
rece
label
##self
jenkins
##26
browser
made
##fr
defin
false
specific
##itch
jquery
control
pos
dri
things
##name
though
action
##net
close
##ium
won
##ee
once
bre
##uct
require
k8s
##port
util
25
functions
must
context
memory
level
platform
21
mean
ip
options
addition
needs
npm
##ruct
##ither
##ma
real
##tern
##ention
ask
idea
enc
50
element
struct
##da
28
great
##ession
dra
bad
screen
console
##44
called
target
##mcat
##word
root
tomcat
07
provide
##xx
response
##ider
group
ul
08
##pr
rub
ren
apache
##abled
complete
cm
handle
stand
##card
testing
##lib
32
##face
##used
isn
##list
##miss
steps
##by
##ources
pres
wa
didn
inside
delete
2017
##97
##fil
cs
internal
item
width
attribut
##ia
separ
##viron
deploy
##erc
folder
e2e
jar
extens
filter
##ls
##let
##cul
cod
dro
projects
instance
dom
##pty
give
auto
commands
happen
high
##lection
docker
argument
##ether
settings
usr
##pu
##96
##actor
##af
2018
05
##board
express
environ
##ampl
framework
few
2f
commun
anything
small
loop
cache
jo
priv
upload
automat
##cus
free
##ables
##over
##ef
##82
eff
max
hover
unit
##arn
##ather
looking
assign
clean
glo
place
##sert
calcul
old
side
either
ra
success
repo
appear
reproduce
versions
needed
exact
##urity
public
##ward
lar
hard
simil
du
count
##comm
var
author
##ody
empty
compare
transl
##cs
serv
similar
pers
track
best
##cket
06
directly
##gra
##enu
##unk
##ips
step
cert
##base
previous
vide
44
push
##do
around
window
charact
##ascript
store
methods
assets
pay
##aces
crash
##39
##less
original
##74
connection
fa
else
34
account
##ople
cpp
environment
tak
##ately
##ah
##ian
medi
##dd
bun
icon
setup
tools
arch
parameter
record
javascript
sor
execut
##ared
uses
requests
rb
customer
##58
##no
##amples
implementation
lines
people
self
private
switch
##llo
commits
##udio
bro
left
admin
az
##76
required
##ier
color
##xy
langu
header
security
sort
##ces
occ
##ernel
stri
save
##bers
sorry
unt
dependency
mention
svn
makes
##err
##grade
##alls
controller
##vm
avoid
##hing
opensh
tex
prow
reviewed
##set
##gl
36
del
everything
openshift
rout
##pi
##ave
static
##ves
boot
native
##25
##pace
hovercard
third
##ily
standard
installed
2016
pa
kernel
kind
never
##ences
network
consider
section
v1
enter
problems
##pping
replace
##ribe
norm
##uring
yet
la
##bal
integration
##book
rather
vs
flag
ang
##stream
80
##28
##ange
ign
within
##urs
creating
correctly
##action
img
guide
##rap
interface
tell
mach
##ilt
lock
##overflow
##nel
video
cla
##wr
cent
##ites
txt
stream
token
assum
none
stackoverflow
elements
design
##fo
##21
drop
break
activity
##its
##lex
seem
##utor
improve
stu
merged
gl
updates
##kt
##iter
##vision
menu
actual
upgrade
cli
chrom
limit
dyn
##ties
##que
ist
pm
refactor
container
##build
sdk
objects
uns
##ply
submit
community
ident
given
means
##enshot
##ought
##bar
generated
big
pages
##test
##ister
party
37
fig
##38
exper
conc
decl
##ground
ruby
screenshot
classes
permiss
messages
started
##ek
##unt
##98
##lin
layout
additional
##pc
short
##ateg
returns
webpack
passed
##encies
##sl
##ished
align
runtime
##ffer
bind
remote
##ox
fast
until
tested
##alid
##ength
session
height
throw
travis
far
cond
nothing
box
nice
guess
adv
items
power
##down
coveralls
existing
automatically
expect
##jax
space
##unch
##ype
team
##1b
##ently
##core
instru
hope
##wise
invalid
chromium
chrome
row
39
wik
incre
least
dynam
compile
position
bar
2015
enable
tot
##pos
duplic
##pped
pat
export
cour
defined
product
##amed
##conf
lu
##way
font
##ats
due
equ
inc
##35
##for
parent
sample
azure
##data
ts
artic
properties
anal
manage
##apt
nav
istio
mar
##cessary
spring
language
separate
global
construct
quot
variables
fields
tmpl
##fc
##ities
##full
location
##impl
##ync
##amp
##error
cases
##ended
31
schem
##cuss
thought
writing
##ibility
components
##eve
46
login
techn
prett
frame
roll
past
std
apply
47
54
fact
discuss
hash
closed
##ba
sent
watch
basic
synt
##ross
prom
##map
##als
trigg
pop
##ouble
contains
aws
##pper
exactly
events
learn
##plicit
share
##pha
times
register
receiv
gets
resource
links
angular
sem
execute
##igr
attribute
##here
spl
less
examples
que
simply
x86
resources
##site
##dc
ios
feed
approach
making
attach
##ings
33
convert
game
dependencies
##etch
##85
##to
##ght
iter
someone
##kn
##empt
##cm
bump
password
longer
compiler
fut
syntax
mob
whether
revision
dir
contin
minor
##cel
##ased
##eb
easy
loading
##aut
##aries
parameters
worked
extension
##ittle
extra
win
##93
built
arm
##tr
explain
plugins
during
reply
##sol
storage
##class
useful
##46
simpl
little
##day
properly
ub
leg
##lock
partic
turn
60
itself
invo
migr
revert
##kit
happens
against
scripts
child
active
##of
##hand
blog
##tes
operator
machine
##51
##pg
gt
##d0
enough
##iddle
##uster
background
eng
##lict
course
regard
##bb
enabled
generate
attempt
entry
##ne
##ero
##ability
infra
normal
##rec
sever
lic
prefer
length
calls
scal
56
shows
scroll
performance
##47
driver
asp
##ercise
##fully
effect
anyone
hist
##f0
visual
conflict
structure
implemented
demo
##92
features
##path
optim
bugs
##ns
future
contact
uni
##cp
sav
##ode
##ov
introdu
later
define
present
trace
trunk
stuff
##config
pretty
launch
##dep
soft
channel
##itor
parse
sense
plan
##vant
gems
developer
rand
##ouse
development
##c0
##aml
wait
##kg
interest
##manager
logic
compat
changing
##a0
##untu
updating
##vc
vm
ge
eval
##aging
checked
fire
serial
feel
##81
general
57
##eded
disable
closing
trigger
##ons
car
hello
##comp
verify
flow
cell
stop
ben
##inst
h3
caus
vir
43
##hes
##ta
##ential
abst
##ories
##come
pan
instructions
##rypt
##raft
modified
solve
manager
42
buffer
cause
fur
gn
##ector
##ank
##95
##odes
body
##itions
##host
rename
arrow
##alk
fails
##comment
large
tutor
prevent
##add
90
##cd
##ae
##43
cpu
nb
website
profile
domain
##ternal
##cf
35
##cb
services
##230
##adex
checking
loaded
##ric
48
rule
quite
tutorial
##reci
800
maint
##patch
statement
v2
##orks
##2f
recomm
grad
##ktop
tags
ax
specify
relative
ens
calling
impact
##esh
##asks
engine
##63
##ialog
libs
further
contributors
##ale
handler
dot
technical
pattern
building
range
loadex
sync
env
##server
insert
loadexercise
merging
##illa
##oss
invoke
ubuntu
mobile
editor
whole
##pot
graphie
entity
strings
modify
pointer
appreci
sup
random
##ts
regist
cluster
pick
sound
person
49
perf
alloc
manually
shared
##irm
external
##ony
wra
pur
condition
##mbol
##ield
##known
aff
usage
45
##ouch
split
detect
##bed
bundle
##ters
final
##gu
dll
dash
pars
fetch
##version
scen
functionality
##itten
callback
relevant
termin
encod
unknown
##erial
reading
front
explicit
temp
comput
mentioned
face
##ool
resolve
included
book
##mode
detail
handling
otherwise
duplicate
flo
comb
mi
broken
wiki
virt
raw
##pri
submod
mom
abstract
moved
##key
##91
certain
accord
##type
##fb
scan
authent
##met
##ially
hr
svg
desktop
utm
##68
mis
absol
##ube
minim
##connect
categ
queue
notes
selected
38
##yc
beli
fre
##medi
starting
permission
##exception
41
proxy
##string
##73
remain
##fort
figure
ready
character
total
##yz
absolute
navig
draw
##f8
license
symbol
issuecomment
easier
publish
coll
##ds
checks
tick
##fl
rules
##context
##reg
##ocol
mail
jobs
sched
history
including
##ifier
##red
tasks
pol
redu
##doc
semant
fill
numbers
##ename
pipe
provided
validation
##aged
double
particular
##edirect
sun
begin
supported
said
##48
##url
card
believe
##ensor
##uit
logging
cat
##mt
media
##client
##45
##aced
maven
calculator
##69
##bd
##ctor
appears
zip
interact
columns
ignore
ps
53
important
special
pdf
##cover
##yp
##ope
##go
several
dynamic
##fd
adds
##ten
appspot
necessary
come
confirm
indic
circ
reflect
ye
dr
according
extract
pref
world
##adata
##c2
center
sha
hoo
mysql56
##haps
collection
gce
##ries
##ending
firef
##79
anyway
perhaps
rows
##78
transform
progress
entire
sequ
##yy
suggestions
jun
tables
##ystem
dest
dig
##b0
white
keys
mine
removing
##he
59
##controller
70
alt
cleanup
##thread
altern
##den
hit
beta
##imes
firefox
theme
sto
failure
foot
year
##lay
typo
configure
cap
tmp
##72
52
ie
deleted
ecl
tre
93
##cha
##fix
fixing
software
libraries
##ured
##rix
reported
qt
reports
##65
##vb
characters
join
##ij
anim
##49
##ume
headers
55
##mm
recent
bytes
son
payroll
##75
models
scope
860
##sd
allows
virtual
deprec
strike
day
##ipse
##tra
##ka
##gi
dialog
##42
forward
utils
difference
##ature
##gex
##e0
##lab
says
somet
##izer
##gs
##resent
points
datas
##zilla
adj
##ired
##ray
player
##62
##strap
##api
##info
assert
incor
binary
sys
h4
##depend
schema
gcc
nbsp
##pose
gives
generic
##craft
redirect
##han
##hesion
ah
yml
wanted
##fa
##light
haven
adhesion
tt
changelog
##gor
##bit
backend
dy
written
vol
##f2
##b3
subsc
articles
resolved
meta
super
soon
##acing
takes
wonder
apple
week
requires
production
cd
timeout
ensure
bott
grid
maintain
##acy
##order
##ience
dj
devel
shown
mag
annot
eclipse
adapt
press
dashboard
##ounter
reset
seconds
##ances
##px
lead
##osed
##method
##upd
##c3
ct
ant
rs
runs
exists
arguments
cmake
ach
returned
tracking
##la
likely
58
11e9
##m4
ear
sit
oct
badge
##zx
expressions
9230
refres
##filter
live
upstream
slow
preview
00000
regex
##fortun
definition
##respon
##object
describe
mix
async
000
unfortun
cf
behaviour
##phone
basically
##files
##press
consist
fri
inline
describ
complex
##anc
shell
##pre
##util
prior
hid
##oose
represent
amaz
conver
91
spark
feedback
catch
vend
nodes
hour
days
constructor
gradle
##31
tomcat90
operation
rob
##handler
##itely
metadata
twe
##aks
star
unless
cook
bootstrap
##ifact
##mon
expand
bus
restart
semantic
##ffff
ins
layer
parser
##ools
skip
programm
rt
sur
##check
devices
rapha
sometimes
##aj
passing
shouldn
##upp
##thers
protocol
ali
zero
constant
##hot
stored
##71
approval
train
##loc
##around
achie
ng
execution
##cloud
##ises
##access
three
adjust
releases
##her
expression
compar
##iced
##bc
exit
wp
others
rollup
perfect
##chan
##di
51
##vy
##uation
da
##process
##ipp
cach
studio
##gt
endpoint
##col
##auth
care
axis
footer
##oring
maj
conflicts
unfortunately
installation
rendering
atom
mind
##a3
agent
##61
##uz
artifact
##izing
##bl
##fact
disabled
seen
##bot
route
s3
somew
completely
socket
solved
##ameworks
gen
##2d
##serv
bound
receive
##erm
named
jpg
views
##ination
provider
dylib
showing
150
##semb
specified
##ives
excl
styles
owners
failing
plot
contents
##body
retri
##web
workaround
listed
vector
cou
translation
##gets
##41
facebook
impl
incorrect
capt
squ
11e8
intuit
helps
##ane
moment
##cho
easily
mysql57
localhost
##arning
references
ns
exe
##ango
bra
##bm
recommend
##framework
##icy
definitely
##ubsc
declar
##apshot
gra
##event
flak
sig
month
obvious
vendor
alth
stable
##amer
yout
##uc
##any
##ivity
light
##vs
warnings
sass
succe
##ember
optional
##br
##icient
##chron
finished
speed
unable
processing
rad
##ators
chart
approved
cross
organ
##ding
attributes
force
major
dim
material
##3d
asso
##gorith
although
##oups
developers
##aaaa
bottom
hy
##cr
embed
caused
##pz
ansible
bt
nest
unique
99
##service
extensions
mong
contributing
cast
##more
manual
kb
##jl
##aming
pot
closes
cmd
member
pract
except
notice
sd
distribut
##lied
seg
##umber
##att
includes
##eries
scenari
outside
##spect
##ha
dispatch
##run
amount
##c1
cred
refresh
##c4
linked
unused
prefix
completed
hot
safe
shot
##ides
chore
discussion
##atsby
rer
algorith
propos
##change
##c7
##astic
##iment
gatsby
associ
ideas
##write
username
appropri
##cing
moving
buttons
##item
ajax
snapshot
amazon
##bn
swift
ff
macro
gz
mocha
##urning
0000
##most
receiving
loader
##value
comes
v0
django
today
signed
category
mapping
goes
raphael
clar
ones
yeah
##a2
##grad
hack
prep
repe
pool
encoding
online
##a5
##ision
##state
inject
matter
##mar
##f4
fork
agree
##html
yaml
touch
mozilla
##rection
builder
transaction
foo
successfully
youtube
displayed
persist
assume
helpful
96
##text
##b2
namespace
##ride
finish
##und
python3
chat
flex
##7d
##gen
cut
suggestion
wrote
csv
authentication
pkg
##oub
##ycle
respons
members
##a4
noticed
##mark
actions
hu
rails
##mail
##bs
ssl
tensor
##orth
deployment
integer
echo
blocks
templates
low
fs
##vector
##rt
occurr
##install
##ints
parsing
gui
##atever
advance
audio
pod
est
mut
##pect
##outer
cp
##ky
##abor
pulling
whatever
achieve
void
3a
sending
jb
##ism
regular
panel
##01
cancel
##pa
hold
gcs
deal
impacted
alternative
##na
along
delta
##4j
##cast
##c6
##factory
helper
##son
applications
byte
scala
lists
##itive
##ana
widget
rerun
##f6
paste
##ubscribe
tele
ol
suggested
11e7
##chain
usually
ir
matrix
##lement
visible
thus
mist
board
mathjax
##stack
##dis
operations
shad
##ater
ticket
happy
##nn
cy
sonar
words
faster
frameworks
paths
pip
assemb
tog
enum
##a6
deprecated
area
forum
dont
vert
wouldn
leave
couple
##c9
wel
##f7
continue
minecraft
##got
topic
##ored
##cop
explicitly
jsf
##gres
poly
66
documents
debugging
override
##str
##va
##usion
##b1
opened
unsubscribe
story
##ised
sounds
gnu
##00000000
wasn
threads
groups
##uration
##nd
##alle
v3
tomcat80
specif
medium
selection
legend
##acle
black
talk
ky
ld
h1
posted
##ied
evalu
nt
88
3d
##with
together
thinking
fav
happening
experiment
away
##erver
##loader
##uri
gub
unne
couldn
##my
blank
monitor
appropriate
powered
##vz
##utes
##ernator
frag
sil
gubernator
extend
choose
queries
keyboard
pin
hey
##page
pow
##b5
##eter
##lines
##block
##ops
##mp
vue
aren
oh
##b4
management
worker
##ightly
##hell
focus
allowed
##utions
##field
creates
compos
##dev
causing
ways
delay
reporting
across
policy
postgres
##itter
vul
appreciated
smo
came
##agr
##group
middle
therefore
##mf
various
snipp
formatting
finally
gpu
requirements
args
constra
##esome
fam
##yt
##ysis
indiv
forms
##pec
##right
elastic
ssh
fore
fit
anymore
schedul
filename
##amb
obj
meant
##rics
described
##module
##index
##comple
##ded
collect
icons
94
lab
##ui
prim
babel
##cale
pipeline
edu
received
##e2
blue
##hel
##a7
instances
correspon
##ests
creation
84
##cent
alert
62
##b6
msg
article
records
##count
remember
increase
##c8
##jo
immedi
screenshots
##wards
##fx
depends
##how
##iod
##f9
che
waiting
##cap
##ulate
##stems
saf
deleg
##cogn
seeing
welcome
##3j
opens
##init
##a8
##c5
##a9
oracle
previously
kvector
timest
##cn
jul
attached
##verse
branches
67
##tion
known
minutes
##cell
hide
saved
keyword
##ration
rot
terminal
inde
##ges
term
causes
usb
friend
xcode
pix
h5
##a1
navigation
87
##ams
tempor
applied
##hat
starts
##ality
her
flags
stud
##hip
##ively
mp
##f3
succeeded
circle
##sto
##gb
##open
##model
entries
almost
fully
signal
asking
esp
##eet
##uous
89
concept
##f5
##array
binding
v4
65
individ
float
##mess
workflow
##ited
answers
lower
##frame
inher
sal
catal
somewhere
mock
##icks
assigned
approvers
##ulator
highlight
##dn
accepted
labels
11e6
jsfiddle
##e4
er
den
der
reviewable
whites
##ereview
jan
##arm
hidden
nested
camer
97
wrapper
algorithm
##actions
86
follows
##etime
dump
##rupt
interesting
sequence
khan
installing
helpers
certific
rust
##ai
makefile
taking
##zy
x64
##pn
contribution
typescript
pict
##where
##image
##ino
gem
permissions
registry
kill
##rew
##erv
##wl
warn
experience
##builder
awesome
approve
asked
##d4
##prise
mouse
##iq
2013
deps
mm
shar
renamed
hal
w3
offic
95
##len
chain
##head
##report
codes
##ison
generator
exerc
##atic
possib
supports
##mer
instant
coding
returning
##project
fold
spaces
depending
lt
reach
ur
##ina
powers
router
often
affect
linking
##ines
transfer
archive
markdown
rc
##d6
##ocop
##ided
explan
rubocop
##odb
fall
##entially
released
##f1
supposed
his
sets
sources
configured
##mv
##oice
##typ
boolean
##activity
executing
replaced
##search
pc
parts
disk
occurs
##ident
published
forgot
##ctionary
##utter
ws
arrays
##allet
assist
dt
reduce
ability
85
edge
ep
##ada
elect
consum
myself
upgrad
controll
##e6
500
opening
##icult
yourself
##updated
##ral
period
2014
##hn
dotnet
##ren
##d3
hook
69
prepare
validate
2010
workspace
63
##uf
##dir
##b9
learning
worth
##enced
sum
operating
specifically
##b8
mirr
2012
manif
indent
role
##cially
##gh
round
##rel
75
refactoring
##def
executed
espe
indeed
scenario
discover
assuming
improved
offset
saying
##ji
##ade
74
dl
alias
metrics
##ond
unic
brows
##hs
92
ss
##b7
##off
purpose
difficult
##04
dataset
managed
analysis
61
##ze
paralle
migration
reload
subject
weird
tcp
macos
##aws
##pb
posts
ids
bash
especially
##exec
frontend
83
ago
##ws
scale
compiled
connected
convers
land
tor
68
okay
coord
func
jboss
##ridge
##logy
exercises
##igned
##itect
amd
score
cur
edited
##onic
append
##ny
hours
##09
somehow
fab
timer
dimens
behind
locally
##case
lastupdated
##ipe
kyma
artifacts
powershell
solutions
wondering
prop
regarding
##ness
stage
##tp
##peg
##using
##dp
##link
98
##e8
compatible
##ii
##e7
bits
##ckets
codereview
clients
127
clicking
compatibility
##06
primary
dead
##wind
conversion
enterprise
compl
tensorflow
77
appreciate
npmjs
##e9
statements
containing
h2
##upport
invest
##fun
76
##call
situation
bench
##03
404
##yx
##store
##onym
region
##endar
news
prompt
concurrent
overflow
architect
ember
parallel
tv
##anced
computer
##dat
params
##chang
gist
filters
##format
uk
restore
##zl
python2
##wid
reviews
exceptions
hardware
individual
sat
meas
##vn
flash
junit
rate
graphs
liter
interpre
clon
##lier
curs
intel
uri
maps
matching
82
happened
81
##exp
flaky
decre
compilation
##graph
##env
##iver
tabs
##ents
##d8
systems
mot
nat
wrap
vim
apis
crashes
##zz
##des
stats
##river
boost
alpha
lint
##d7
meaning
##02
eb
kube
##ili
##cape
texcleanup
protect
assembly
coming
##illy
ack
##issue
commented
debian
initialize
##dependency
ess
lif
##ira
##dom
##gy
##etting
emp
##inos
states
##engine
crypt
wordpress
camera
##bug
cost
huge
unnecessary
neg
sens
##connection
official
programming
##07
##entials
hor
mute
##inate
##200
desired
plus
phot
disc
##ulation
##nt
##d5
79
kar
explanation
lua
understanding
gif
strange
maxim
##lying
startup
terms
lost
drivers
##2c
suite
looked
near
##ference
##iff
border
regards
listen
eth
possibly
##icate
recogn
logged
company
##leg
samples
went
##vas
##cy
restri
ce
nil
##cal
##ival
##d9
requested
visit
asset
integ
xxx
provides
enh
rid
timestamp
suff
protot
##plugin
engl
##queue
equal
fed
interested
##compat
opp
tweak
recently
animation
immediately
##08
frequ
##struct
trick
hom
##wd
matches
inner
##roy
places
##e5
1000
dart
seed
giving
priority
factory
##faces
##ilities
checkbox
mc
webcore
cra
utf
recurs
##win
##pied
72
##utils
breaking
tracker
occurred
eg
##apter
pixel
aug
##message
##uid
##bf
llvm
prec
weight
##org
baz
encounter
pid
copied
##izes
supers
analyz
pair
internet
indicate
##iness
editing
rev
##e3
##uk
requirement
aware
##input
##wx
collabor
twitter
ski
synchron
##htt
english
manifest
perfectly
tomcat8
clock
##mi
##accessor
dictionary
respect
marked
detected
regr
automatic
cookie
mechan
mount
##ermine
##date
##greg
##ley
compress
##stat
signature
staging
bal
##rary
##ital
packet
older
invol
73
##emon
direction
anonym
##dg
air
determine
fragment
corresponding
stra
hum
silly
concern
intended
annotation
btw
##ants
capture
11e5
##ios
devdependency
simplify
togg
robot
cop
clone
##from
mb
contributor
love
upon
##hj
poll
minimal
##cod
bund
proced
servers
successful
relations
decided
followed
##boot
associated
ds
##root
iphone
##ann
dropdown
scr
vulner
##wh
##bose
##ars
##d2
##xml
smart
webkit
##imate
numer
snippet
##pass
investig
taken
everyone
##asing
dns
##rag
##earch
##oop
practice
chunk
na
##utton
##valid
reasons
runner
78
##unit
cool
promise
ping
generation
##iny
agre
interacting
introduced
##gtm
controls
ill
excel
conda
certificate
electron
##ones
guys
whenever
declaration
consistent
tril
stuck
##ags
vscode
verbose
##found
bugfix
anonymous
retest
becom
implementing
##ga
##rs
browsers
192
retrieve
heav
amazonaws
volume
utc
hooks
cgi
##wt
backup
series
gate
curl
missed
adapter
fair
partial
##05
##sec
v8
modal
desk
improvements
##liver
##cer
trilinos
mari
saving
##ln
unicode
considered
imm
saw
##trace
##complete
room
increment
pending
lgtm
covered
alex
##adding
##rd
combin
took
pand
##100
##mission
##cache
extended
##guard
##asp
twice
assignment
##proper
##oubles
jet
##arily
become
drag
resolution
spell
kpoint
handled
5c
automated
segment
todo
##vider
goal
##ious
hopefully
mk
picture
##oom
dav
##ajpz
earlier
rewrite
chance
##ajpzm4
##plate
cursor
##izations
equival
invok
##ores
transport
luck
##ervice
##node
calendar
advanced
apo
##mq
mistake
nan
##ups
sites
##command
##vey
affected
mil
bul
nodejs
##md
##player
mvc
##icon
obviously
##umb
##ora
initialized
fb
compute
##accessorimpl
plain
##ambda
##start
##edia
##cv
transition
##ived
ops
sand
gmail
bri
ngin
benef
dd
colors
wallet
quotes
subt
drive
installer
dan
postgresql
downloaded
shape
##socket
##mn
rebase
san
##pan
168
breaks
mt
nginx
beginning
aggreg
imag
slightly
bazel
mask
##script
##e1
trust
strict
firebase
##3jjl
71
##result
##ssl
sle
selector
interactive
##ught
paper
temporary
defaults
amp
translate
locale
##isk
##sequ
research
##abling
2008
##d1
##fsm4
##ptions
sb
pain
mus
translations
0x0
20issue
flutter
addresses
margin
sqlite
##nl
folders
prod
containers
nor
counter
safari
deep
trouble
tx
appar
bat
soc
lambda
enhance
obser
##trans
repositories
##jb
apr
##etest
255
notify
##ders
factor
##omet
springframework
products
##avel
routes
declared
retry
years
inser
putting
ast
gtk
interval
reverts
smaller
##cons
reopen
spr
asyn
overrid
shut
faq
comparison
heart
failures
##ued
tom
120
prepar
compiling
aud
servlet
##tain
##expected
embedded
##pth
symbols
ga
favor
##lections
superseded
inputs
searching
##ecycle
destroy
##ceed
hence
wish
validator
leav
har
lookup
efficient
##compon
##yle
##can
##ummy
##print
df
##zh
mostly
composer
##ks5
##alth
lets
pom
##mx
differs
bel
##hold
fat
identity
replic
fabric
dynamically
loss
443
cv
architecture
late
##oro
respond
##ula
##eless
cn
modification
controllers
##uget
distribution
##ulp
languages
pie
##methodaccessorimpl
##ench
secre
128
datetime
intell
confused
unexpected
##kb
##iling
confusing
laravel
u00
##click
minimum
generally
equivalent
terra
training
conv
##anger
pg
tu
troubles
ros
normally
calculate
deleting
unix
tun
crit
zone
prototype
meet
wants
##contain
choice
rx
becomes
##war
suppose
credentials
declare
##itable
spin
allowing
clarify
iteration
leak
##layout
256
wip
overview
spot
##los
bring
laz
2c
##hr
generating
##lers
##tools
reader
##hm
hub
convent
popup
accom
amd64
throws
dm
##abot
imported
##gram
copying
connections
##ea
cms
300
instanti
padding
##eto
tutorials
ode
yarn
maximum
finding
logo
ignored
dummy
##ying
##gv
##eps
instruction
##ocation
##awn
ak
higher
diag
observ
detection
regression
##hd
refs
likewise
submitted
##ement
sr
##icated
potential
##ural
cud
initialization
negative
400
assistant
secure
occur
originally
##cks
unsigned
redis
##eff
hang
traceback
##arp
##qt
naming
thrown
nuget
sam
clang
ctrl
canvas
intern
gp
independ
emo
cloned
##vd
##ffe
broad
##orer
ana
perl
##zw
daemon
bunch
##listener
introduce
magic
zoom
fault
assertion
osx
processes
650
uploaded
stick
##ational
continuous
##ki
##http
registered
lots
##bern
thoughts
attack
platforms
##dbc
recommended
##encing
##iler
heavy
typed
##control
phys
scanning
ram
##did
raise
##opt
directories
analyt
##oting
effort
conditions
##pol
datat
##provider
##ising
clicked
##ret
wed
produce
##element
kde
hex
debugger
anywhere
svc
oauth
glad
##hz
logger
limited
children
##orn
##docs
deliver
##yk
feb
##stor
od
##══
legacy
tf
cant
specification
decim
clearly
tid
##──
jack
gmt
oc
shift
##cut
wild
emit
camp
##etype
smoke
jira
##sel
##changed
##button
sections
##angle
##aker
interfaces
gol
accur
##lication
providing
##mfony
##oy
hadoop
ibm
il
##appear
complic
##plot
##json
c3jjl
hpp
##reen
##ledge
anacond
##acs
contrib
180
redund
##arant
definitions
converted
repeat
pt
##oper
##raw
##ey
whitespace
apparently
symfony
displ
pushed
larger
complexity
business
detailed
identifier
implicit
executable
straight
offer
identify
##essions
##ento
owner
##ja
migrate
##oku
gc
##l2
sudo
nov
inspect
subscription
knumber
##bean
measure
flat
procedure
listener
completion
##ermin
contract
elasticsearch
fac
rendered
fresh
##pad
##ategy
qa
ze
vars
##mine
opin
tries
blocking
forget
110
##erry
##uff
bi
advice
##rep
dependabot
univers
aspx
imports
##ung
former
interrupt
infin
##abl
hyper
dates
deployed
##bernate
ded
##dr
2006
##works
ec
realm
quickly
tls
mill
##v2
##1f
descript
##driver
inherit
##modules
##bra
loads
pointers
ardu
mechanism
fonts
libc
##application
##tim
zend
rm
half
##ait
employ
2011
manageiq
sleep
determin
caching
##land
##ker
decod
googles
linear
fffff
gulp
removes
bool
eventually
##inder
gloss
forge
##nb
homeb
remaining
dark
signific
accounts
##pick
decide
##aff
reads
sep
reject
newer
cart
##coin
triggered
##hy
octo
attempting
contribute
typesetting
##rans
guarant
suspect
browse
101
pure
##xxxx
games
##proxy
##match
graphics
##apply
pred
sharing
repos
dict
prs
ls
concat
cached
##por
multip
gent
##admin
watching
shadow
referenced
gro
testreport
mongodb
##umps
##zone
toggle
##coming
dar
playing
channels
mx
props
##inc
recover
hg
##wra
##gress
2009
lack
middleware
claim
ml
protection
price
##dt
entirely
simpler
emoji
obtain
bindings
onto
targets
tok
intent
##ctl
entities
##zs
##buffer
displays
odd
ipv
lifecycle
##verage
experi
mit
##6f
loadmodule
##ignore
figured
xx
cxx
rebuild
xhtml
analytics
posh
submitting
sheet
evaluate
texture
##iw
ionic
##param
##look
predi
downloads
rip
office
##oles
troublesho
cock
arduino
##python
glossary
jest
h6
commons
rect
resulting
registration
sou
talking
retrie
##istics
proc
outputs
quant
encrypt
##ids
cells
plug
et
##cat
rpc
##bound
blocked
early
##holder
xam
##jk
##afe
totally
quality
corrected
switching
stay
##uy
##iliar
123
coordin
firm
led
handles
proposed
keeping
hmm
bio
pag
##chem
jl
flush
##component
overall
##pen
redundant
slot
hint
benchmark
libsass
114
nix
252
significant
slack
##dy
##dispatch
insp
##ev
heroku
conversation
104
##101
ai
##ius
telephone
printer
mich
##uv
##xception
ber
remained
critical
##gest
invent
##pline
printing
mor
##parser
##pkg
googlesource
lazy
gone
hop
layers
reverse
turns
documented
mal
gave
##gajpzm4
##isation
##mat
four
routing
bean
hw
peer
centos
redhat
proposal
cg
##ecutor
##window
##processor
tap
gateway
numpy
danger
decor
collections
piece
##rame
filesystem
##ulated
hier
translated
accompl
programs
phase
##ubmit
selen
orient
pandas
##editor
##lload
processor
unity
complicated
optimization
david
filing
locked
##dash
iso
pen
grow
overl
improvement
cb
specs
##inv
personal
##container
checkout
##logies
##vl
gar
##abilities
##osh
stopped
filtering
rsp
exchange
##part
turned
decode
duration
renderer
##ned
##table
displaying
tiny
belong
##mem
##apping
##cg
openssl
depth
##ene
partition
pthread
constraint
scheduler
pointing
draft
vagr
##loop
##select
gentoo
magento
criter
ta
##alloc
golang
##ava
hon
##active
appdata
increased
##qs
##rop
##channel
styling
payment
sorted
rd
##metic
aspnet
vagrant
##entry
##pool
spawn
recip
##ometry
ef
##agger
widgets
wide
##lu
karma
##3n
##fill
cordo
win32
##ester
serve
##00000
##task
heap
reasonable
##ym
stale
directive
chall
annotations
utility
secret
##iles
ko
downloading
grab
fffffff
health
##3b
0x1
familiar
trivi
##stood
knowledge
uch
hibernate
wall
terraform
dc
possibility
##xb
sorting
mochajs
readable
0x7
schedule
jour
##kl
##ses
administ
exclude
susp
##wv
passes
dam
210
disappear
fid
##screen
rw
regardless
##002
ee
fd
restrict
implementations
opinion
selenium
launcher
##bus
providers
##aign
bc
##xg
8080
social
escape
##studio
##style
located
horiz
anno
##property
ends
applic
shortcut
distance
categories
scratch
##ook
cherry
imposs
##istic
wikip
##like
##ository
spar
##ners
##domain
##otes
recipe
##ograph
cheers
cdn
percent
scheme
##hl
i3
explorer
certainly
gov
catalog
jump
##force
msdn
ahead
clause
nic
##ros
bridge
abort
alter
len
00000000
subclass
##attribut
patches
resize
##quote
picked
units
##hub
##unc
##ni
u001b
converting
copyright
impossible
asci
curi
formula
typing
handlers
##yi
##resol
firmware
hierarch
storing
##ech
##orrow
##master
ba
instr
age
campaign
##configuration
##bind
redux
mixed
posting
##wp
van
managing
placed
mirroring
nl
nv
250
expir
complain
tada
113
toolt
pupp
wire
##iki
##gener
fatal
calculation
acked
##ously
eu
##urrency
ju
helpline
cordova
pal
cas
dimensions
##nost
doct
##y9
destination
stub
fallback
subscrib
##pher
jit
subst
foundation
revis
refactored
frames
geo
life
flakes
levels
facing
##1d
hints
##erce
sessions
##adapter
msm
wow
authored
mono
arbit
##2b
introduction
fx
wikipedia
expose
ic
164
encountered
##256
sym
manip
##fy
mid
2d
expecting
replacing
momo
##ensive
useless
demon
##create
tue
organization
iterate
##only
r1
cos
9e
quote
john
offline
bb
family
adguard
misc
##under
tmplapply
##rom
rack
months
ended
tmplload
##wrapper
172
mods
radio
##job
##status
compose
she
uploads
##uite
country
gdb
##bon
skill
##roach
8a
##space
cleaned
keeps
##render
##vile
navigate
trailing
bg
independent
overlay
runmodules
##iel
arc
##instance
gb
guard
payload
##atives
tile
##afka
##itude
helped
##hash
advant
toolbar
walk
potentially
libsystem
delegate
##prot
guidelines
generates
fiddle
##runner
##storage
constants
abs
##types
##selves
friendly
committed
verified
tokens
##qk
##ott
ban
cuda
##poo
scene
##uch
deck
encode
##201
v7
##ament
numeric
##jh
##local
optimize
effects
callbacks
ship
sf
reser
agreement
gnome
literal
##234
puppet
##vr
##reader
##tests
ger
##acity
##yl
apt
mariad
trivial
neither
thum
##hips
imagine
selecting
403
ideally
unre
instrument
reli
thu
ey
rich
sizes
criteria
preser
tax
accessing
##direct
##inks
hm
102
elim
##hh
vertical
r2
insight
wir
##forge
unc
strategy
crypto
vc
mr
cockroach
##ering
pci
isol
constraints
##yg
convention
asynchron
##post
knows
race
spread
fairly
patterns
preferences
populate
##ocs
107
conform
##kr
req
square
operators
##ils
authorization
##3t
##allow
city
indentation
machines
##5e
addons
underlying
uninstall
##virt
rewr
##uter
proceed
zh
inventory
##igning
##wf
##iec
##child
##paces
##eeee
conven
thats
peter
##001
pil
##wm
va
locations
gitignore
ports
overload
combination
disconnect
140
rpm
dail
parsed
##pd
average
conditional
variant
intellij
graphql
##abs
dependent
differences
##labs
protected
cfg
mv
##ica
##gz
accordingly
market
discord
sender
catalina
homebrew
essentially
ru
##parent
##ael
sensor
prints
##helper
loops
##18n
##bin
kib
##initial
##2n
##undle
ann
##bul
106
##arin
accessible
##bi
buff
mart
benefit
doub
gitlab
uuid
iterator
guid
integrate
techno
approver
vulnerability
sinon
coordinates
submission
circleci
cards
roles
men
foreach
##plication
##cla
implements
##structure
asm
2nd
bes
hasn
vl
doesnt
entered
demonstr
##menu
##async
automation
np
##tree
relationship
##arg
##heet
##reshold
scm
jdbc
##tool
scrolling
leaving
pet
simplified
##eline
##oman
##unity
##lim
##update
##ko
searched
##ceptor
##ervices
beans
central
sandbox
addressed
##lexecutor
anti
chris
##qq
typescleanup
tmplcleanup
websocket
adhesioncleanup
214
calculatorcleanup
communication
formats
mathcleanup
swap
##apis
distin
raphaelcleanup
cycle
arm64
116
##watch
experimental
##agraph
authorized
brand
##width
##au
##oft
##amm
letter
##sing
hear
dimension
##ancy
##ounting
144
geometry
compared
##xec
##wo
cve
viol
##ifiers
elf
horizont
gs
tc
alph
scop
jsp
blockquote
##plus
confusion
360
typeerror
cookies
closure
jdk7
##sharp
designed
##arr
arith
moves
##ost
##ih
upgraded
processed
reb
gyp
##consist
decimal
##location
##typed
drawing
produces
dh
recursive
transactions
connecting
##air
##ju
##late
mass
daily
rights
##ffic
applicable
##xr
##poses
##agram
2020
iv
caref
minute
##poolexecutor
trunc
##output
dem
connector
emacs
reproduc
hosts
atomic
west
skipped
##211
##aaaaaaaa
yield
players
usa
2007
220
awt
117
decrease
chose
##old
absolutely
emails
##callback
##the
##sq
discussed
stops
bount
##ao
##5b
streams
##128
importing
##ension
authors
ment
sends
##elist
student
jvm
##picker
##iest
derived
##marks
ja
ptr
##2x
##mpeg
i18n
photo
triggers
identical
anch
mes
positive
markup
ideal
shutdown
dataframe
130
comma
placeholder
modern
##berry
boxes
##3r
bucket
macros
##tor
##dl
grpc
reflection
swagger
colour
pods
charts
javad
103
537
tells
accident
##1e
##007
initially
arbitrary
##bid
personally
accomplish
severity
music
##atory
themes
##jj
iframe
gram
rocket
##uss
##gger
##repository
##options
developing
##ryption
105
ii
specifying
purposes
clip
kafka
2002
rend
amb
##cessarily
band
lodash
abc
##stra
provision
##uck
##eks
##address
recre
stdout
##color
xamarin
##kin
foreign
v5
##103
god
candid
publishing
aa
movi
##999
115
somewhat
eip
##debug
oss
administr
##yll
serialization
109
paragraph
hp
switched
aspect
##bg
satis
separated
combine
printed
squash
supporting
hotfix
##viewcontroller
fedora
idle
124
rever
contained
##ovy
worry
3rd
##visor
bill
inconsist
ffmpeg
separately
traffic
ampl
responses
slide
##vt
opencv
##hi
2000
tur
water
uint
busy
##document
logical
sq
##lm
resume
applying
upgrading
112
enumer
##char
differently
##bert
gall
##tem
##alone
alignment
##ety
greater
steam
delegating
cleaning
wifi
##services
##mitted
rely
ini
186
egg
prof
injection
211
##105
##ees
allocated
bigger
considering
##upy
hosted
south
stock
##izard
##otion
##121
##grid
threshold
ordering
filled
##reme
gal
outer
collaps
##place
##repo
##ifies
##ubl
160
##rus
d3
universal
##fly
254
##fn
profil
arithmetic
##170
qual
inserted
##omo
seq
253
ift
hoping
subsequ
coco
treat
flask
night
floating
teams
##veyor
milest
reboot
bugzilla
##bre
ipad
escap
backport
##edit
##102
2005
greatly
ug
111
##jz
##orp
particip
grant
tip
##nfsm4
sufficient
fly
##rist
viewer
##vin
##ruction
##aske
repeated
##5c
vote
##ura
108
##qm
rat
opengl
fp
understood
him
ten
proto
tomorrow
human
125
latter
coded
ib
addon
netty
leads
##unks
401
##udo
videos
compilers
obsole
5d
pse
##8b
allocation
snyk
imgur
ske
simulator
slider
ebp
##ader
relation
piv
precise
indexes
planning
knative
pep
##8d
apk
customize
ldap
##fish
formatted
##det
tweaks
removal
1998
##rf
##points
uploading
intention
118
confirmed
poshi
groovy
mete
mq
pointed
leading
representation
##source
unlike
formerly
ck
##ano
avat
statistics
threadpoolexecutor
epo
##function
attr
standalone
##default
##pppp
trello
##567
##oney
duplicates
##003
hierarchy
##inger
##9z
##sa
##125
##istry
##104
reproducible
##uzz
##xl
sidebar
conn
121
spi
rbp
##sn
##iy
mesh
integrated
aaa
##level
##w5
notebook
##bundle
l2
optimized
writes
appveyor
listing
fc
internally
consumer
##rent
ft
mib
upper
curious
exc
fake
throwing
attachment
marker
0a
glob
challen
applies
##atically
comparing
119
remains
hostname
bower
##derr
tooltip
infinite
road
speak
nu
jetty
##cade
googleapis
nativemethodaccessorimpl
renaming
##1c
entering
additionally
typically
physical
definitelytyped
126
stores
utf8
starter
javax
subs
performed
147
grunt
strip
defining
ker
databases
journal
encoded
scenarios
uchij
217
fml
##rule
modifying
acqu
snap
disabling
162
##eed
##130
pk
answered
hd
##response
weeks
ascii
pic
gzip
##chart
##ypes
subscribe
surface
configurations
decision
##orton
5b
objective
bd
smooth
##args
rfc
wrapped
investigate
kr
locking
fyi
wl
extreme
##ined
##9e
bey
tagged
equals
##pull
ae
homep
##5f
##anal
topics
intermedi
meteor
solid
lex
##eel
##panel
##inx
l1
##zr
dropped
fw
11ea
##token
##ustr
limits
##ched
linq
profiles
involved
##7b
incorrectly
autog
##nx
nightly
##lett
gain
##executor
nore
diagnost
thx
organizations
grep
##pers
cmakefiles
intro
##rage
##iant
contributions
##6b
1024
mips
emulator
##ading
stderr
verification
clicks
themselves
preferred
##004
f2
##une
scheduled
dockerfile
streaming
explained
##ands
hyp
helm
##808
binaries
advantage
estim
corner
##aves
pul
##hq
keywords
geck
owncloud
##crete
20190
##king
uid
sho
##isions
##names
##related
annoying
slice
guessing
textbox
deserial
##si
extends
fastdo
migrated
concaten
sky
##ugg
au
kibana
##apps
iot
structures
timezone
mutex
##umer
137
##flags
cron
replacement
##collection
defines
activate
beyond
##inte
157
configurable
overwr
prettier
bounds
html5
frequency
obsolete
122
infrastructure
##3c
##wa
rang
endpoints
##509
##agent
await
##account
whit
vb
##imple
rubydoc
configs
privile
responsive
scra
bon
ipv6
popular
tuple
irq
presubmit
systemd
whereas
##3e
##jy
allocate
ads
javadoc
223
attempts
reuse
learned
realize
##530
##resource
shi
repro
##celer
michael
cleaner
xm
exported
mapped
anybody
##5a
webview
##8f
kept
##4df
##worker
##zg
addr
towards
##dm
##agic
##orld
mistak
kit
swing
spacing
alternatively
testray
broadcast
mongo
metric
primit
frequently
##rm
homepage
##ounce
pad
136
ming
surpr
264
##omb
overhead
cores
raised
512
##leton
##lists
nex
smile
##134
rvm
vt
##olt
among
##inf
134
##network
activitythread
216
attention
hs
incompat
##import
cass
pilot
##pal
establ
##5d
##140
codacy
sales
scss
##notifier
lapt
visibility
forbid
##interface
##utable
nar
webs
iis
##ueto
cycl
##atype
##kk
legal
woo
rf
c0
reinstall
builders
##9b
163
ari
forums
1st
##106
monitoring
##uu
enabling
156
ri
everywhere
drm
ffffffff8
collaboration
tostring
webapp
invoked
cit
##ror
tl
timing
usual
ignoring
webdriver
yep
##hb
udp
##eshark
maintainer
distinct
unitt
pivot
buffers
discovered
propag
easiest
march
precision
##uel
atl
med
cle
threading
invocation
jupy
##wq
##oz
succeed
extr
##9999
##8e
##107
##omain
propose
wireshark
referring
##v0
wheel
chef
bulk
incoming
berke
dirty
##wg
##uetooth
audit
horizontal
##124
##ods
classic
dee
reserved
jek
##platform
persistent
unm
gallery
discovery
vect
hosting
berkeley
encryption
##upported
enhancement
##3f
commenting
fel
##ples
consistency
jp
regener
##wall
##ptr
dere
##fail
px
v6
defer
packets
retain
##commerce
interaction
combined
##legal
154
predict
ec2
om
digital
jupyter
fol
##amation
##160
oops
ham
freed
##1a
rework
##644
listview
overwrite
thumbn
8b
dedicated
ordered
##xm
jackson
213
teach
els
yours
fetching
##area
##claim
necessarily
duplicated
##askexec
chunks
##640
jas
xp
caller
##8a
##wk
##8c
realized
excell
bs
jekyll
##992
substit
slash
##eman
integers
stacktrace
dtd
##cnfsm4
honest
choo
##wiki
balance
##wj
salt
localfile
libg
##vari
##5q
noreply
syml
149
##000000
hdf
environments
proof
suppress
licens
newly
charset
##andra
fec
##ito
grammar
wave
slid
modifications
calculated
260
queues
##7f
218
openstack
257
song
snippets
146
##beat
asynchronous
si
milestone
mismatch
219
##vww
craft
##uron
##206
fro
picker
unlock
expects
jon
persistence
distributed
approvalnotifier
xsl
##fp
##bucket
##2p
##itle
accessibility
##isp
parenthes
union
observable
norton
232
##atures
##entity
stated
classpath
cri
suffix
##writer
infer
challenge
##upid
exclamation
270
servo
typos
besides
house
ton
170
##4c
w3c
##lauf
whats
garb
##reh
guides
excellent
titles
servic
digits
##2l
seemed
##operation
alone
##mu
hole
tips
paul
0200
##nable
bq
skipping
codelauf
prem
##np
guest
##3pn
##k3t
fixt
brief
exports
cho
d0
sap
recipes
sentence
##9f
##arget
##abi
daniel
told
##uccess
boiler
inspector
forced
mime
sensitive
jsx
gecko
authenticate
##804
illegal
registers
##xs
slower
pushing
i386
##122
shop
##dec
rasp
##igot
##apper
##52hs
zeit
##yy3pn
##vwwk3t
##vwwk3tul
##yy3pnvwwk3tul
##52hs4df
##yy3pnvwwk3tul52hs4df
kot
##linux
yester
sad
pseudo
##6c
spam
dealing
##rections
gam
stupid
pypi
pause
##caught
es6
##qr
##109
reporter
preference
##6e
webpage
brew
197
joom
matlab
laptop
##204
compression
##obe
exclud
checksum
##cope
174
bitmap
2004
scaling
##osen
broker
techni
codec
mirror
##203
##branch
solves
htm
mongoose
rst
whose
brackets
##d94
rotation
##2z
##2a
##dated
xen
shall
subsequent
##fre
##ali
interpreter
kath
yesterday
##ebin
mini
wake
mainten
600
c3
##za
mand
pixels
##position
##stable
zer
doubt
vmouse
somebody
##9k
declarations
dn
##dx
risk
transparent
troubleshoot
wrapping
delim
##wb
wo
ugly
##43vm
soap
evaluation
mailt
129
153
##new
subset
jr
diam
sale
##gon
inactive
xs
190
##zen
240
176
revid
resolves
##vg
delegatingmethodaccessorimpl
backwards
kat
initi
##9c
##mos
##ict
timed
ftp
indicates
verb
##v3
explains
##avail
##vo
e0
codepen
##har
rhel
dropbox
accessed
##64b
##orig
2001
##acc
##xc
observed
##oted
327
e5
imo
accepts
sph
##phere
c2
orange
##ewhere
gon
sg
chapter
148
fund
unrelated
##ram
maintenance
spent
##forward
martin
##sy
mathload
microsoftdocs
##f36
187
##vk
mingw
##ingu
serious
cake
wont
replicate
couch
purch
##bench
nc
codebase
prevents
##4b
##max
##php
joomla
##xg43vm
descriptor
##uth
##536
pagination
illum
ia
angle
b0
a1
compiles
sampl
uncaught
je
##gis
wast
edits
discard
kwar
plans
##chat
outdated
##fh
##126
##lt
##zt
javac
##itto
139
replay
##bsd
##main
##reet
highly
deploying
##375
graphiec
graphiecleanup
aligned
kvectorcleanup
gpio
158
workers
##activ
incomplete
capabilities
elsewhere
##erexception
gradient
135
bold
encrypted
##spro
##eres
##════
##pipe
##abbit
##number
132
pb
concepts
assumed
prag
anaconda
ball
##7c
##icle
canon
probe
bluetooth
##umes
gerr
computed
compreh
##ection
decreased
##xp
##java
##icol
##haw
mailto
effectively
singleton
##uations
##tle
000000
##maps
subscribed
##144
##uts
forbidden
tail
##504
confirmation
pd
screens
presentation
discussions
destruct
garbage
letters
##540
##906
##kell
##forms
till
##plan
autocomplete
c1
i2c
ray
counts
showed
configuring
accurate
toolchain
##css
152
algorithms
preced
##860
133
edition
secondary
##izable
hardcod
newline
copies
odoo
143
outlook
exploring
orders
ring
infl
plots
wan
simplest
bumps
behave
##830
##uses
migrations
suggests
##123
nio
##840
0m
##uj
posix
##itz
##foundation
broke
corrupt
##rtc
##llll
bf
linker
trac
executor
##904
##oroi
ks
stg
serialize
##frag
versioning
##809
##pserver
books
##ology
##obuf
##xn
##berg
2003
8c
##zxj
##rive
anchor
unders
nd
bea
a4
##top
rare
german
233
##qp
##legate
darwin
delivery
##pective
##conds
##origin
dragg
serving
##560
devtools
##d0d
describing
ti
145
##kan
cam
indexing
throughout
zf2
wizard
basics
##upal
usercontent
deprecation
##iled
exposed
nvid
correction
mall
##9d
domains
testsuite
##etic
shr
performing
prepared
gerrit
slave
rake
modes
base64
##tf
raspberry
chosen
amplab
semantics
indices
interpol
##abase
##record
assigning
266
##asm
##askexecuter
##iguous
fan
pastebin
formatter
whitelist
recovery
jpeg
shader
##6d
##██
capital
camel
tiles
##ball
skia
spigot
lose
boilerplate
##header
deg
somed
##vj
apart
packaging
##ycl
timeline
##7e
glib
##brow
##center
signing
extremely
##tery
##uing
##phy
##eus
datasets
##rot
ava
##ado
suitable
allocator
##media
267
##din
carbon
robust
approx
2b
xaml
datasource
##x2
cancell
inheritance
writer
particularly
misunder
tend
recognize
appium
zen
unchanged
##ached
##cw
nn
##spot
212
beaut
##ague
alb
leaf
expos
mysq
##240
cult
##eat
acceler
138
gri
##oad
nvidia
##matrix
weak
rgb
##internal
##6a
basis
##870
pressing
james
9c
candidate
##rier
a0
##amf2
cassandra
##3a
matched
rating
##108
hbase
mg
##117
##807
drupal
ace
##4f
166
supply
dma
##oftware
##w1
undo
##stone
##ereum
toll
##runtime
temper
um
osgi
reduced
##208
ratio
##207
##problem
204
remark
produced
##del
##olution
gap
aka
##izers
##501
##bnr
##bird
##directory
poor
##570
explore
onclick
tal
expanded
eric
reproduction
concrete
viewport
9b
andre
kwargs
haskell
##806
aggregate
##layer
##sheet
mn
solr
##lyph
##ua
torch
##114
wpf
##var
helping
chars
##organ
bitcoin
169
0000000000000
##202
pressed
indicator
closer
sell
guarantee
startt
adb
desp
knowing
triangle
##frameworks
##esis
nom
practices
yo
131
##obj
autos
unsupported
##serial
##xf
initializing
md5
attempted
administrator
##scall
vectors
phil
##ala
inn
contacts
yoroi
gold
bundles
##rad
builtin
rss
##vv
explo
msvc
xpath
rg
dp
neo
feder
poke
constructed
rtl
##mz
strugg
##compile
prin
pulled
sbt
mike
pep8
immomo
pairs
##encod
##proj
##111
##dialog
##209
kathjax
##aaa
hud
##lane
rough
294
##lined
expressionscleanup
159
##112
luc
relatively
sams
##4e
##i9
##uet
bundler
locks
standards
converter
##576
resolving
##emap
##available
meeting
buy
sauron
unpack
##wy
elabor
##unner
receiver
##idence
##andbox
ranges
feels
hh
155
analyzer
ener
##506
telling
apiv
##copy
ethereum
unclear
##aba
adobe
exercise
nextcloud
##items
gather
330
courses
gd
##ansion
areas
xss
schemas
drake
11e4
tel
mentions
##reference
##folder
interpret
##quo
##ova
##v1
##emark
simulation
##profile
vo
credit
##326
##4d
ups
##emu
167
##192
expires
##146
zyg
##uby
activities
rank
iam
dg
0xc
##169
##iro
##647
flexible
tricky
##jt
##porate
kick
currency
accidentally
eleg
digit
##loaded
protobuf
28master
suggesting
sphinx
mqtt
aim
submodule
inserting
##fol
##pages
##iform
tk
executes
142
bib
ice
sharepoint
hive
##mic
stan
toolkit
sanity
graphieload
kotlin
routine
##rest
bare
177
sid
##2776
attachments
##exchange
tty
clearer
admins
vertex
goto
differential
situations
dw
bitbucket
indexed
##kill
alternatives
##b100
sen
despite
webh
##ikit
messaging
dos
vba
##dog
173
epoch
customers
##n0
boards
orientation
sonatype
001
zygote
lite
##fault
worse
preserve
##ront
rh
filed
veh
immutable
##rc0
nfs
firewall
layouts
referencing
spect
exam
reviewers
##116
kod
ux
##544
renders
##metry
localization
gke
capability
##filterchain
nick
##attribute
silence
transformer
noted
employee
spelling
lands
1500
perm
wb
cors
##874
##game
##estate
##167
202
##velo
avg
##generator
206
filtered
saves
mainly
julia
##setting
effective
deeple
breakpoint
regions
cvs
7d
usable
wc
cpus
##qa
ot
194
wer
positions
##vh
separator
##obox
magn
##909
##166
##fw
aspnetcore
die
##irect
##fm
willing
xmlns
kbd
maintainers
##fi
##119
##abact
184
malloc
##antom
convenient
##interceptor
gcp
##546
regexp
unsafe
ly
illuminate
int32
logout
##907
##309
represents
##raid
##875
##601
experiencing
sketch
money
extracted
finds
concl
##logic
damage
enforce
##ppers
234
3000
##library
##adin
##888
identified
clarification
##136
checker
log4j
highlighting
turning
283
voice
lib64
##andler
##ele
phr
scanner
populated
##device
networking
##fragment
alive
##size
hell
shard
##hist
224
samsung
##rack
iron
##icing
##534
##awa
##zip
##ior
284
##194
radius
bypass
anaconda3
deeplearning
redmine
thom
duck
##500
clue
gray
sock
agreed
cargo
solving
##apped
mariadb100
##timeout
forever
##beans
7f
assumption
meantime
caught
theory
##ya
##lang
##zn
##xygen
reached
sed
##oto
incompatible
##127
activated
recreate
##bars
##construct
##imp
splitting
##uce
pytest
overriding
tidy
troubleshooting
##zj
##uh
mpi
denied
movie
rotate
##sem
deletion
temporarily
##upt
reh
4b
increasing
harder
##v4
glyph
cry
aes
bigrepo
5rc0
##648
##ney
bumped
networks
weights
technically
##524
construction
alarm
##340
##eces
holds
##dh
adjusted
##ried
andrew
gas
##ervlet
acceptable
hitting
friends
narrow
apiv1
##503
recording
autogen
noise
panic
##kes
##vq
##uent
178
##oroll
hits
calib
stret
##ulating
fastlane
175
##174
partially
##v7
glass
##6f16
apologies
instantiate
259
##mber
crashing
openj
##gp
redirects
eliminate
324
diamond
##507
notation
##label
filen
##184
invite
##ysource
students
##994
kops
inconsistent
observe
orm
##ffe7d
anyways
##55d94
ell
##237
advis
##803
utilities
dofilter
concise
9e2776
9e2776ffe7d
9e2776ffe7d200
9e2776ffe7d2006f16
9e2776ffe7d2006f16f36
9e2776ffe7d2006f16f36d0d
9e2776ffe7d2006f16f36d0d55d94
9e2776ffe7d2006f16f36d0d55d9464b
inactivity
##foc
refers
e2
gst
rabbit
traits
ry
##205
##324
##thed
i6
afterwards
##chr
##rem
opensource
##arter
##867
concerns
battery
##rate
hardcoded
preset
synth
randomly
bank
photos
decoder
##137
##font
203
a2
bullet
perspective
autoroll
vanilla
##ock
mim
##296
condu
gun
ditto
##dele
experienced
##ancer
cleared
##ares
##wer
m2
namespaces
225
animations
aliases
lan
motion
resolver
ether
intermediate
leaves
##otests
elegant
9f
privateframeworks
##icies
memo
grace
pp
##zm
inters
ground
christ
finger
##nr
bid
230
##147
spy
##virus
tp
##ists
matt
conformance
nicely
##949
lc
responsible
191
heading
digest
evaluated
problematic
irc
##nc
fish
##gar
formatcleanup
##jq
portable
bk
deeplearning4j
##ining
7b
##ste
opport
assumes
certificates
##llib
descriptions
##548
printf
station
sprint
##tl
thor
##646
cro
##author
e4
##integr
8f
ppc
##547
##113
alphab
alerts
clas
foc
##iance
shap
##vp
b2
kvectorload
##526
rebased
##176
##802
suspend
##006
##git
newest
similarly
##903
##delegate
##raction
grey
somedomain
bp
anon
##512
quad
woocommerce
nod
##508
bur
##length
reverted
##attr
##atet
neut
navbar
evaled
edges
seper
209
makeproblem
treated
##compress
extern
errno
##232
fundament
affects
##jr
##password
1234
tgz
transformation
heartbeat
portion
##527
##ully
manner
##mult
##365
typesload
##tag
texload
##ena
207
folks
##elload
motiv
adhesionload
conversations
##resolved
calculatorload
##torch
##ici
tbr
raphaelload
##illian
presum
##165
mp4
natural
prere
gg
##328
quit
temperature
belongs
##ctors
193
##537
##ini
tb
computation
ddf
skeleton
##940
##mob
##amps
##xd
chin
banner
##sub
intercept
##aro
requesting
199
##usters
antivirus
8d
lol
8e
##236
##529
b3
mixer
corp
sockets
distingu
287
##rine
9a
##yon
##ertest
##ensions
angularjs
pragma
latency
stopping
##going
##996
mui
skills
##2017
privacy
##196
unstable
restarting
bother
deny
readthed
##502
##els
##usive
playlist
nexus
trad
reviewing
holding
downstream
scripting
##yq
##widget
##578
lp
141
readthedocs
coordinate
concerned
flight
##609
##ighb
incub
##bag
##launch
afraid
##ama
arqu
tester
##column
trial
sprite
sir
##package
strongly
##177
##4v
##566
##997
pieces
##163
presence
pas
sequences
##scan
uncheck
recursion
##ico
checklist
allux
developed
constructors
occas
listening
##535
##mann
ctx
##room
omn
requiring
##diff
##anim
ital
##zi
##rout
196
accuracy
readability
##values
##707
imho
340
10000
careful
webrtc
##hib
opposed
##602
##0000000000000000
elaborate
stripe
variants
vary
gonna
hab
##143
pictures
a3
0x0000
alluxio
##270
reactive
##aik
study
gps
##574
batt
##uler
##nk
##pat
enables
f1
blink
school
##837
duplication
##num
humans
##enabled
##304
calculations
##igen
##133
tach
spend
215
composite
expansion
rom
##fire
##keys
##187
##197
##publ
##views
##005
##commit
canonical
wm
##ato
envs
151
##2015
stays
##assemb
3e
thous
stackexchange
subversion
focused
buildbot
technology
##rees
334
198
season
##rece
arraylist
##115
encou
cockroachdb
styled
reliable
beacon
##ipy
0100
##x3
immediate
opent
0x4
compressed
##riber
165
##2r
286
merges
##built
zygoteinit
##118
insights
memberships
awk
##hint
depart
64bit
xls
sanit
portage
##nq
omit
vmware
contributed
##vote
3b
bountysource
##528
##inject
shield
stars
puts
restarted
##phd
##aw5
##908
##hu
kinda
topo
trees
##327
limitation
advise
pulse
ips
mapbox
aster
supplied
cab
##agement
polyfill
##while
##139
rehear
##lly
hund
stylesheet
trim
enhan
##caps
##finition
abi
##logger
anc
landing
##front
##fir
linter
##577
ble
l3
clearing
pap
reve
rap
##129
sparse
##233
signals
getter
##149
384
tickets
179
toc
333
encoder
serverless
183
##ourcesoftware
##168
whitesourcesoftware
policies
qt5
straightforward
fractions
etcd
x11
writ
analyze
mad
jwt
forked
##805
fits
latex
rehearse
mik
vault
##ban
##ensus
tfs
programmatically
eh
bob
##2s
##standing
heads
arquillian
prox
staff
pytorch
nullpoint
##gui
explaining
##archar
designer
##877
##plex
linting
c4
clipboard
##aser
movement
vaadin
expert
eq
backward
adam
satisf
counting
##239
844
docstring
reorder
energy
xyz
##oon
jax
##authent
dts
metal
##kkit
cru
unresolved
##505
##944
ceph
wise
eps
##666
speech
##gle
rv
portlet
pane
silent
##stress
tox
208
##orph
diagram
communicate
wx
princi
171
##vents
##policy
bed
fired
renov
popo
outline
selectors
chip
wd
##009
compan
rectangle
reproduced
receives
tracing
subrepository
erl
stm
##well
volumes
##604
boundary
hundred
##guide
multic
tbody
##pell
0x2
##gines
actor
climate
##axy
189
gy
uchijaaaa
##mk
guidance
thumbnail
##549
nullpointerexception
charm
enhancements
##704
thumb
keras
##x1
respective
album
##wz
alright
##world
vision
##argument
##track
##ldb
##gf
##902
b4
silver
9d
##wallet
quantity
##ander
revisions
cyg
##539
rn
##formation
##179
baseline
overrides
##8266
cvss
lag
powerful
4d
##ecord
freeze
french
locate
##ussian
##896
webcompat
percentage
##gc
##879
dropping
circum
##je
tracks
##329
##initialized
doctrine
vulnerable
libp
dbg
##eness
##643
caches
sdl
ow
paypal
##597
division
ending
##iu
##008
stretch
zendframework
renovate
4e
recycl
##pullrequest
asc
hur
##bas
##193
##rele
##897
e7
aside
avatar
##238
primitive
##enix
##addr
mandatory
##atra
##138
lts
unsure
##posed
##iding
expensive
320
##834
hero
println
websites
paint
##bt
unittest
phantom
ea
##enty
uniform
dx
##lify
367
##lose
pun
##codec
subtract
invoice
##291
neighb
##ku
424
united
alternate
##189
sms
4c
##folio
##869
b1
mailing
kt
smtp
pasted
kal
restful
##ami
##efficient
xsd
shorter
symlink
installs
trade
##ancnfsm4
prometh
##enly
culture
##tic
selects
visualstudio
fragments
188
perman
replication
237
20the
222
overlap
244
favicon
##lies
momo6
delayed
##183
forwarded
##839
unlikely
crashed
##jv
kh
tracked
0b
##ectl
acl
compet
##607
sourceforge
##usky
terminated
##596
changeset
##cli
##eters
didnt
##866
4f
##173
datatype
##phdme
rspec
wildcard
fort
##nz
thomas
xt
##145
scalar
##998
sha1
b5
ras
##draw
vec
##move
graf
relay
contra
accepting
menus
mpserver
survey
unw
##522
consume
outcome
##properties
matplot
e6
sudd
##801
markers
##148
##plug
##ran
##533
##ola
gor
##579
##ye
##sch
ghost
skin
grouping
##161
##142
activation
182
##836
##905
viewing
mov
nr
prometheus
##enter
kubemark
observer
introducing
qtc
##g9
replaces
185
bub
initializer
distinguish
##158
casting
8a80
##urer
gran
respectively
##231
##jp
##template
lg
##525
htaccess
switches
##estore
illustr
morning
passwords
##odel
coff
docsbranch
##bject
##sm
161
##198
##667
ultim
##847
gi
##ports
matplotlib
maintained
ing
vfs
0d
##protocol
triggering
##desk
flux
demand
##135
##876
checkpoint
r3
##roject
tslint
mariadb
edx
histo
consistently
##569
btn
a7
##advisor
##543
##agers
capacity
i0
handy
wildfly
##322
highlighted
chinese
exporting
needing
aaae2
##188
##901
benchmarks
ingress
pipelines
##────
accum
##a5cnfsm4
##ipt
##ham
patient
blogs
##atable
warm
##iom
kpointload
compact
angles
trait
collision
orch
##invocation
ons
##608
##zo
announce
yellow
##276
##alpha
bear
337
##844
##community
##jd
prime
##conver
##ppp
t1
##qx
##video
wcf
##avig
##comput
playback
guaranteed
khtml
444
cel
dock
##icator
pent
##555
##codes
marks
availability
##asdf
buf
##implement
##563
##226
preventing
##browser
kinds
##equ
mnt
lr
expr
##rip
travers
##265
fluent
diagnostics
occasion
##538
##groups
extending
##863
##606
mw
activer
setter
registering
presumably
association
##msg
dial
b8
nobody
##datas
combinations
ipv4
##sdl
##aint
##settings
gest
presented
conventions
##inja
##peed
##classloader
##ulations
tachyon
smp
clusters
aaae2q
##ara
##lr
##21haw
##ettings
247
00x
matth
impress
multil
determined
##325
kon
##jn
##ework
checkboxes
##141
##memory
##parse
##itional
jars
instruct
runnable
##capt
##zk
weather
amazing
redirected
##handled
304
##dll
mappings
##ede
##ensity
storybook
serializer
##ropy
3c
##isible
##vcm
##843
weblate
##usable
incubator
##viewer
##zer
listeners
##stest
##649
##131
divs
##fff
portfolio
##598
##phen
deadlock
consequ
snow
##nes
##scleanup
exceed
searches
bec
##706
rooms
recognized
epis
##835
##868
backtrace
##follow
##agrid
captured
##integration
crazy
kubectl
autot
##873
##mach
httpclient
workflows
##lyt
jose
normalize
mvn
##lav
retrieving
cmss
##ris
##jx
##303
typical
webgl
netlify
dispatcher
seek
unneeded
approaches
##545
##pay
gitter
played
##vol
##573
##gx
sequel
##709
##enet
##eer
marsh
5000
##duck
afaik
344
curve
shim
##tracker
oauth2
rp
##593
sticky
publisher
##155
textview
solver
recv
scoped
nearly
##omy
##178
a6
##235
##568
##option
rejected
wi
226
struggling
##fan
sas
clarity
preparing
##xxxxxxxx
##404
##947
##cription
weap
decrypt
looping
##vu
##833
##bet
vuejs
##proc
hypers
243
terminate
extracting
##vsw
##sw
##handle
##office
relationships
919
##542
restruct
sharp
apollo
benefits
watchdog
##assert
7c
testcase
adopt
grav
##loading
structured
starttask
##glo
##bro
destroyed
safety
rollback
##898
raz
classloader
applicationfilterchain
227
readonly
##flo
landscape
nature
20it
##register
##ita
engines
promises
violation
mapper
8000
##182
##renderer
argv
ped
4a
##592
##weight
##categ
181
mixin
##fit
f5
##gm
cpan
##172
##aver
cern
229
##993
##iot
userid
deriv
hiding
##custom
0x00
ugl
##pression
##now
dun
##eeeeeeee
twig
##ynam
e8
sonarsource
splash
flake
cloj
activerecord
##webkit
collapse
slug
##ald
x2f
tour
heard
contexts
##244
lisp
f0
##lem
##oint
##cafe
stro
rail
##atter
##sets
##878
hl
db2
choices
##urround
creator
##kh
eventdispatch
##703
b7
decoding
i9
technologies
glance
gm
##572
205
##rocess
##uffle
robert
##575
l4
##security
##ads
##atest
globally
##ypress
advert
querying
retrieved
##pin
ted
##175
improving
a9
##aur
triple
ath
##995
##dexception
piper
pdo
segments
280
millise
vpn
circular
collector
##icious
d2
six
##z2
simon
##b3j
forest
hun
oppos
##cos
animate
everytime
lb
esp8266
polish
meaningful
plex
weekend
fetched
matters
galaxy
dub
##binding
runners
killed
protocols
pf
zoo
alphabet
##307
postgresql94
##306
april
blur
##246
##current
datepicker
syscall
d1
##vern
##846
##display
##validate
##produ
##308
bookmark
##haus
eye
mate
phy
omap
offers
##333
##ulo
calc
underscore
##ications
##oke
l10
restricted
migrating
hol
interpreted
brother
##null
food
revers
##rp
wording
urllib
five
unhandled
236
inherited
programmer
optimal
actives
yyy
pls
gear
achieved
##bytes
kvm
kubevirt
optimizations
csharp
zsh
nope
##ourse
##865
leader
##fields
##erequest
##rible
##stash
harm
##vbw
commonly
##uer
dry
m4
a8
slight
##ett
slim
cz
rsa
technique
rtc
influx
##cy9
asap
dol
problemsload
##ername
239
mistakes
directives
aggregation
computing
##185
repoman
##565
##838
##km
##qy
##ppy
qemu
subl
##uve
ale
cub
310
spat
##828
##605
##321
automattic
globals
proj
##lif
kindly
##enger
sinonjs
##ys9
decorator
significantly
envoy
door
editable
##abb
sse
kpointcleanup
##beh
spreadsheet
tweet
textarea
##892
msbuild
moe
##buf
kl
##ship
covers
##jc
nicer
##162
sip
leaks
grails
letting
jre
disse
##222
##aneous
##free
varchar
377
##charts
##med
calculating
##exist
snapshots
highest
gpg
shrink
b6
gpl
##registry
profiler
ion
weekly
convenience
rnb
retro
##libs
launched
##603
##vest
hass
hdfs
##268
##vx
extent
##jm
##fu
##195
brave
##converter
polling
unavailable
##rum
privileges
##params
fancy
jasmine
synchronization
##pullrequestbuilder
editors
0f
hudson
dst
bright
##393
##range
195
shortly
jud
##885
literals
ipython
##objects
datatable
surprised
kan
releasing
bam
inode
monday
##common
ppppp
xl
mutable
##645
employees
##enode
##weq
##946
0x3
phpunit
##athan
b9
charge
rnbqk
##eee
##wu
##872
246
sourc
##ias
plane
pppppppp
rnbqkbnr
kin
##chema
1999
##orical
recall
authenticated
##yxzh
1d
reconnect
keybase
##571
##logs
##pop
##locity
##tech
##byid
228
rock
tink
lpkg
##uma
substring
##848
##iet
manu
##wc
##aby
mission
represented
adapters
decimals
mcve
slo
surround
transitional
simult
furthermore
asks
##ien
telemetry
##849
carefully
rolling
##gate
dk
##642
raster
fullscreen
playground
##progress
staged
modular
##295
reality
establish
##mas
##277
zn
##iri
upcoming
detecting
segfault
##cmd
ken
##height
##293
##jun
expired
uninitialized
tod
##kq
##297
reviewer
hyd
bn
##zb
##893
motivation
##151
##943
##see
scheduling
controlled
lam
##const
wil
##ques
3f
lm
##521
##coder
##bridge
cocoap
bread
modifier
##eshow
segmentation
bandwidth
dave
##708
py3
900
maintaining
##fold
##valve
implicitly
hangs
jpa
tenant
##x4
411
dear
scipy
##cluster
uc
polygon
encaps
conduct
literally
fmt
injected
##344
continues
spare
##674
##lytics
##isc
practical
opportunity
##qi
##eme
merc
predicate
##274
303
totals
##595
intend
mbed
##secure
additions
viewmodel
sizeof
unified
lowercase
worst
proadvisor
##3nyy
##181
demos
jruby
##resh
ranch
##ractor
374
atm
concurrency
lesson
rede
sparkpullrequestbuilder
tunnel
crate
beginner
eigen
##delete
kas
purchase
p1
jitstress
##workflow
opposite
##374
heat
codegen
##hm6
gatsbyjs
##262
276
obtained
drawable
og
pac
249
##247
eventqueue
theor
polymer
blacklist
##mates
fm
workbench
wal
##jg
mir
labs
incremental
##qn
prev
consol
freebsd
rc1
a5
datagrid
gemfile
##562
##aze
##bullet
picking
cygwin
##bing
solar
sees
##first
feeling
sublime
gad
performs
automate
1f
##558
ignores
##yst
##refix
##term
consoletext
##walk
##missions
##audio
##225
describes
timers
queued
reminder
##inputstream
ensures
##gap
aux
forcing
##dit
nag
osc
dal
husky
301
wanting
##next
invisible
##aw9
##cts
death
instrumentation
marking
voc
visualization
recommendation
##hk
decisions
coffee
yah
xhtml1
##882
crashlytics
##fac
mas
mint
iterations
##shake
mel
plist
regenerate
jess
openapi
##mag
##228
august
##279
##aho
ckeditor
reveal
##ruption
##rick
vehicle
##ensitive
ghc
jap
238
242
rain
##uary
kw
##house
##676
##aking
repair
akka
knumbercleanup
investigation
reorgan
closest
##45c7
sans
##191
299
serialized
memc
hug
jeff
partner
misle
haz
##osity
irrele
##slash
mp3
##948
rapid
##263
307
##parameter
qtcore
tru
minio
helpdesk
rabbitmq
##icode
involves
flip
290
##jav
235
relying
e1
##302
##after
dialogs
engineering
dex
##metadata
##notification
##845
nm
appeared
richard
##777
fech
logstash
wanna
semicol
##erna
divide
acpi
gotten
invoking
##mock
congr
parentheses
antich
launching
##wvgg
travel
##2t
spinner
webserver
introduces
slides
restriction
##33nn
joins
problemscleanup
##usb
##ography
##33nnvsw
##33nnvsw45c7
##33nnvsw45c7nfsm4
##wvgg33nnvsw45c7nfsm4
##uvexg43vm
##uvexg43vmwvgg33nnvsw45c7nfsm4
##oh
##yy3pnvwwk3tul52hs4dfuvexg43vmwvgg33nnvsw45c7nfsm4
labeled
quickstart
ivy
synchronous
filling
cu
##531
##ortest
doctype
##668
r8
##beanfactory
identifiers
wrappers
##368
shortcuts
brian
##lector
##vw
##ming
dismiss
jason
sept
anticheat
nf
responding
##5l
##249
flav
##itate
carry
##ested
vr
##379
##3nyyy9
scrap
validated
arri
skype
scsi
mf
manipulate
##norm
npc
activesupport
luci
##deploy
irrelevant
mysqli
##note
scores
##iate
pyc
azur
patched
248
drawer
combobox
ultimately
basetest
collected
f2fs
##bie
245
bars
##erson
classification
f4
july
##login
iterating
##zq
rdf
dual
##377
##warning
e9
hpc
##862
cocoapods
480
##702
##677
uglify
rancher
fps
##1l
recipient
shipping
##369
swipe
gene
##ronos
302
d4
##895
science
##hop
relies
crow
397
nit
bw
##merge
choosing
drawn
sybase
##ystems
scrollbar
prtest
##orders
asterisk
javafx
##669
estimate
caps
vms
##unes
440
enhanced
##hc
p2
checkstyle
spir
tablet
497
avoids
f3
permit
compilerservices
pivotal
weren
timestamps
abstraction
##842
##resolver
taxon
shapes
declaring
##385
restored
remotes
million
trusted
stdin
recorded
caffe
bots
epan
quoted
safely
##storm
honestly
1e
inet
fixtures
##enot
##elf
actionpack
semi
##utt
behaves
anticheatfound
october
##estor
tableview
##269
317
##541
ny
valu
mkdir
textures
##248
##rv
sonarcloud
221
hypersonic
cha
wsdl
##widgets
logcat
thrott
tier
py2
1b
ka
strictly
bag
ordin
##rw
bir
##ols
##bw
##gan
planned
deployments
cuc
codehaus
limitations
lz
sentry
##parameters
reloading
enfor
##891
##anted
sequelize
##363
fade
thinks
pulls
aio
##inary
fusion
##242
wireless
june
##quick
reformat
##hood
datastore
x2
assertions
cmakelists
##ford
##iders
##ousel
telegram
##zp
internals
avoiding
##ked
mainactivity
crop
vcs
escaping
filenames
##freq
consuming
##enumer
mmc
anytime
kubelet
velocity
slideshow
east
##gel
contrast
slots
escaped
nullable
truncated
manufact
##bone
##298
converts
natives
##343
nik
specifies
##nam
sadly
sme
tack
##335
350
signatures
recycler
##305
##5weq
ntdll
paid
##88c
mant
##changes
##archive
brings
##uild
appropriately
##ferences
ipfs
hasht
xc
311
openjdk
poc
##273
##iation
boss
365
decides
##brid
##target
##mac
resizing
##21haw4v
cum
cycles
govern
opacity
glitch
spons
virtualbox
routines
##80211
clojure
election
cleanups
summar
##bee
equality
jni
##assist
jx
grafana
deferred
goals
intr
##oe
##formatter
##usc
262
##asis
corrupted
involve
interpolation
##tk
kernels
syslog
##243
##362
##stal
endian
bios
opts
cypress
##stats
yann
ender
tooling
indicating
animated
fuse
messed
sp1f
experiments
faces
f7
##825
curr
##871
existence
elimin
##resources
storyboard
misleading
hashes
##942
stories
##processing
notified
0xc0
##hw
deletes
liqu
##zf
launchpad
answering
knew
##oj
##uq
stylelint
signup
##ucel
connectivity
##dump
lerna
jaco
disag
combo
##quis
precisely
##841
##comb
fluid
##byte
brought
restrictions
##rpc
guy
##945
synchronized
exponent
##lyn
##upload
spanish
sensors
myapp
314
##results
bonus
moj
##esign
north
eventdispatchthread
interceptor
o2
273
provisioning
threaded
beautif
analog
##dispatcher
##attributes
##aka
cx
##v6
##301
ppe
bukkit
ipc
##171
##641
surely
crud
##stop
spatial
##utation
dynamics
##lc
poshir
integrations
basetestrule
##272
evaluating
frozen
##mind
looper
##ed7
e3
ngx
appearing
##xe
postman
##iciency
313
yup
ay
cucumber
tan
archives
ligh
buffered
##585
profiling
optionally
wat
seperate
toast
moreover
readers
cube
bundled
##spec
backends
2fg
validating
pdb
##346
structs
aarch
subscriptions
wol
sha256
##861
##kj
analyzed
volt
t2
##orepo
eyes
##ette
312
jm
euro
haml
wso
forces
updater
mounted
##292
sick
##models
##sockets
speaking
##tran
##qg
credential
devs
measurement
frank
phrase
sar
pentaho
##apsed
groupid
held
##sts
pj
descriptive
##hp
applewebkit
##assign
navigator
composit
##376
consolid
sake
##ubuntu
##imal
ease
redi
zlib
aar
##izen
braces
avatars
steve
beam
sinatra
expectations
376
##iving
suddenly
freez
##821
essential
japan
cid
compass
elev
f8
999
virtualenv
clr
cloning
pcm
nam
ioctl
forth
viewgroup
dur
cws
cogn
##ani
integrity
##0d
visitor
certs
cleanly
comfort
finishes
##221
##ury
nas
relax
minecraftserver
0000000000000000
correl
4096
##403
civ
##formed
postcss
##grind
shorten
milliseconds
netbeans
r4
##9a
traces
##ercase
swarm
##551
disappears
seo
##ille
established
distro
277
##prop
buggy
##condition
##sty
puzz
saucel
overridden
##hf
##705
##xxx
deeper
raid
ansi
cq
##347
faced
revalidate
deactiv
##4a
##awaiter
convin
dao
pins
##onet
rig
forgotten
grouped
steal
law
##pipeline
##estring
individually
498
dumb
androidruntime
unmute
positioning
saucelabs
unchecked
diagn
##emplate
##r1
monthly
##591
squid
favour
placement
##9s
700
##ayer
doxygen
backslash
bud
##incip
20s
implies
##priv
##frames
decent
kim
##feed
oncreate
flatten
chai
xslt
struts
##chemy
anton
##andon
granular
served
membership
encourage
nim
aarch64
kevin
qb
##278
yyyy
january
##21haw4vamf2
brain
contracts
##chrome
completes
fires
2a
datal
316
jsc
##ooks
231
##ogether
##jw
msi
i686
king
##endpoint
357
remind
instantiated
274
resp
##1010
psy
felix
ris
attaching
placing
##672
##iterator
##vy29
persists
##android
isolate
##9y
aur
acquire
##663
multiplication
poshirunner
##🔅🔅
silently
##estr
##561
textfield
simulate
##aul
osm
474
d7
sel
##olas
##brains
projection
extras
##events
##aab
##angles
##uchk
##odle
thousands
claims
department
pasting
minimize
texts
waste
##dem
##uo
269
ossindex
upt
##444
stm32
generators
##idel
subprocess
##831
288
sorts
c7
##9j
##mix
##selector
##joy
couchbase
##cert
catching
251
corrections
objc
##0x
##analysis
##erely
billing
yam
##assembly
appended
##261
excluded
ven
##scroll
securitybullet
ipt
insertion
producer
bracket
equation
timeouts
##asy
exiting
##annot
lad
drops
##blocks
##ctask
bell
xf
street
sink
creat
pig
##cean
##etext
deprecate
289
battle
##ima
neutral
transforms
##should
##ocument
reloc
demonstrate
blame
snd
macosx
investigating
exits
exited
gwt
##category
comprehensive
databind
diagnostic
compliant
##onal
##0l
devops
targeting
applet
##rer
##qube
neat
##projects
##men
plotting
principle
aborted
monkey
##ends
##risto
assignments
inference
##275
##407
##cor
drone
addressing
agents
279
##empty
loose
difficulty
frid
eof
##icom
flick
##rices
scopes
319
handshake
##img
##aaaaaaaaaaaaaaaa
##erp
##ades
circumst
godot
##ftp
525
323
##392
histogram
geor
disconnected
ful
carousel
##encil
##deps
collaborators
dots
gfx
vp
processors
reduces
ndb
secrets
sheets
##sniff
extraction
##func
spotify
##isco
palett
720
##abe
increases
overwritten
##2k
uwp
sonarqube
mins
##ceeded
scatter
##imer
##373
erb
classname
sometime
dfs
dream
sized
forwarding
##lec
jw
indirect
##magic
wso2
##hx
moder
##etask
licenses
international
manipulation
therm
expressionsload
funds
##m1
##compiler
##interval
296
fen
##378
bugfixes
##phi
pho
tz
digging
##tab
taskawaiter
lk
coin
npe
multipart
318
multim
nove
##step
webhook
plenty
inspection
##encrypt
##blo
chunked
appearance
##car
ownership
foreground
##348
assistance
probability
lifetime
reddit
##398
##alf
##lee
rsquo
thead
##976
duckduck
i7
clickable
##lp
kodi
fraction
hovercards
mentioning
feeds
##outine
conclusion
hundreds
241
##auto
##n1
ambiguous
matthew
##rik
dup
javase
##extensions
v1alpha
dragon
##review
##export
stefan
messy
earth
powerpc
seb
##erex
sema
renew
biz
seam
sampling
stands
##hab
##decl
capable
##selected
annotated
palm
##sproj
abandon
observation
##depim
university
ple
##aneously
##ours
prest
rewriting
##r5
computers
educ
dangerous
dhcp
flaw
420
##701
driven
2fs
kubeflow
nosniff
refreshing
##eval
floor
dragging
fuck
subsystem
##mg
typedef
##affold
##ierra
crs
yahoo
alsa
##406
##673
##stock
wav
polym
neo4j
voting
yii
innodb
##ots
##ereg
##zd
##cheduler
mss
repeating
storm
worries
corefx
defect
##qw
russian
hammer
##mapping
##349
composition
ud
ig
stdlib
##0000000
##ati
##678
cance
trap
pra
centered
1080
phantomjs
conversions
topology
consul
##icial
##hg
hands
477
kdepim
yannick
##appro
32bit
nuxt
scraper
hat
##classes
vice
##oops
vin
emph
##manif
fixup
##luence
20wallet
##avigation
minus
kam
396
sqlite3
fant
##oundexception
feas
##emat
0c
quart
approxim
##extension
##inator
xd
jim
##679
sib
procedures
optimizer
##phin
##2019
intuitive
payments
vid
##ubes
correspond
##city
stab
typecheck
constantly
badges
0700
shif
frustr
rpi
assess
embedding
##ston
trash
isolated
enums
##ifex
##339
pv
##881
colon
mutation
flexibility
##aac
puppeteer
nos
##transaction
410
wk
piperorigin
hybrid
apolog
bzr
operate
##standard
downgrade
386
profession
##middle
elapsed
sensible
setupt
dsl
directions
##mes
##245
thin
boom
##isons
263
securitybulletins
366
wins
notep
##icating
xr
bolt
1m
##station
##moke
##vre
##spector
##holders
blood
##former
matrices
dissectors
favorite
roughly
##qb
##shell
facil
workarounds
tagging
##9t
##role
alp
panels
lucene
nyc
nixos
toolbox
deserialize
##5ww
adapted
##prom
craf
c6
adjustments
##mask
306
prede
##abc
altogether
##arden
##2v
##atis
inserts
upp
amend
##oder
##foundexception
stamp
indicated
##irable
##oul
##2nvb
##phan
##authorized
##statement
##rh
josh
appending
##ila
transitions
##management
granted
##llllllll
##definition
##qz
ethernet
tg
414
nofollow
orig
##974
preparation
rounding
blockchain
representing
##q0
##racker
##991
##mvb
##409
wsgi
##estream
##345
##qe
0x10
d8
##372
managers
km
remot
corresponds
c9
##boost
uart
elm
crystal
massive
dispose
canada
redirection
venv
##omial
emu
cored
assemblies
enem
##users
##pex
graphic
297
parsers
##lix
##fj
oaming
##qj
8859
operand
scott
thorough
sierra
##details
xxxx
glibc
ported
##stri
cave
##clr
##aven
##edb
greenkeeperio
overlapping
sbin
ninja
replaying
prediction
stability
pn
colle
ua
replica
angular2
duckduckgo
omitted
##escript
fash
offsets
statuses
reflected
yields
xlsx
##oken
arme
##aget
jetbrains
autor
450
##ktdn
reducing
432
quir
##2zlo
##bugs
compound
sequential
atlas
##orpws
##2zloorpws
##ktdn5ww
reth
##join
##ktdn5ww2zloorpws
notepad
itunes
valgrind
qgis
##pk
inverse
aria
aop
bom
subscriber
##enges
inclusion
bsd
marketplace
##otify
csproj
efl
cakephp
640
##drop
penny
craw
##children
##395
distribute
ffffffff
m3
fer
##════════
sab
avr
motor
trip
stress
mast
msc
loopback
##969
##idata
opend
##271
##21haw4vamf2ys9
assumptions
##nik
teddy
##iser
##offset
strateg
defaul
bluebird
blind
consensus
##itation
azurerm
armeabi
fortran
40types
0800
sigs
hair
##enumber
##vec
katz
c8
##igu
hes
corporate
322
##r2
nativescript
participate
##omp
##mvx
squashed
268
##qc
celery
ndk
jsdoc
fred
fwiw
compliance
versa
##941
uv
opencl
##ika
hashmap
d6
258
##asure
toler
habit
##background
##heets
dece
transifex
dirs
uncomment
phpmy
committing
├──
##coord
dbus
hc
gae
##lla
##uan
##rypto
idx
circuit
became
resulted
##seq
hadn
yannickcr
prerequis
##bad
unset
ssd
##361
##uw
crc
elix
stl
messing
tek
subdomain
##rb
enclos
##581
##763
292
maker
avoided
bookmarks
signers
##fg
##ersey
surprising
##achable
lum
backlog
bog
nvm
owned
##qv
##emanager
##lexception
dereference
figuring
biggest
##338
disallow
futuretask
multiply
##251
##components
truncate
##atile
bfd
instantiation
##monitor
conflicting
linkedin
##675
prove
delimiter
las
##vyl
##ras
newbie
efficiency
##285
##tb
quiet
##f7f
slf
##boy
netcore
fashion
priorit
phoenix
##thandler
club
recompile
preprocessor
364
viewroot
##341
occurrences
consists
partitions
##aman
##ales
torrent
mang
obs
##touch
density
zenhub
redo
armv7
lives
ej
20should
materials
autop
christo
##pane
##van
september
reaction
ya
##hield
phpmyadmin
reduction
encountering
##mapper
browserify
eventbus
##768
independently
secs
homework
pw
ni
##meter
beautiful
1a
##akes
blueprint
userspace
commandline
zookeeper
rewritten
##irection
orgs
simultaneously
##emo
codesandbox
##0f
332
s2
ocaml
##jam
##iner
esc
combining
syncing
pops
##774
esm
mapred
setuptools
370
##jack
aust
pych
##expression
rcu
##kx
exporter
jersey
aid
leaflet
nesting
##pel
evil
bing
##0b
commerc
##rift
joz
417
##ancing
##gems
mmap
##342
bottle
##iam
##ife
formatload
##console
##lessly
##incipal
353
consult
pav
corruption
##eric
urg
##kz
joining
##climate
##cademy
datad
zu
lst
viewrootimpl
consideration
simpletests
umb
##ivy
##rait
stroke
firstly
moz
raising
reverting
sonarcommunity
majority
fixture
##s1
##chant
elixir
scikit
jam
bh
ctor
##rant
zfs
c5
##gear
##iti
trained
##dict
##witch
enters
cold
browsing
##global
##plicity
##qh
265
clever
satisfied
##783
recursively
stard
ln
indication
##yy3pnvwwk3tul52hs4dfuvexg43vmwvgg33nnvsw45c7nfsm4gt
f6
503
cpufreq
marc
##9zcm
transpar
mun
grade
##963
challenges
cipher
occurring
producing
cgroup
##aud
comparisons
##tions
aj
hypersonic20
##icul
pem
oriented
pitch
##left
degree
456
##roxy
homebridge
##images
axes
customized
##break
544
##readful
species
comfortable
1c
generics
invoke0
309
dog
finder
##invalid
costs
viewcontroller
lean
instagram
countries
blah
##965
423
capturing
bor
slf4j
funny
circumstances
fuzz
briefly
##4s
##coll
pill
##2h
000001
derby
tuples
wlan
##968
macbook
interrupts
submodules
x1
lun
pose
physics
##stro
importer
jq
replies
cls
valuable
statically
20see
##v8
dolphin
episode
commas
5a
##enumerable
okhttp
headless
consumption
typeof
0px
##aring
##dist
dut
indust
roadmap
counters
caption
disagree
precedence
vk
##973
beat
esp32
##manifest
bounty
##gun
zig
##flare
r0
0992
336
trusty
380
csrf
##alchemy
rstudio
pressure
truly
##execution
##tx
extractor
xy
##metric
connects
roots
specifications
d9
floats
reactor
diction
artifactid
limiting
##antic
##syn
issued
whitesource
hana
##enses
actively
pylint
symbolic
conceptual
restoring
wno
occasionally
propagate
##wlul
##pair
275
##979
##wxr
f9
incon
han
fingerprint
highf
##qd
2e
##241
parenthesis
codeclimate
##uge
##7a
##fall
2x
002
factors
##agicagic
##semble
fee
depshield
synced
zap
##aga
##batch
##2016
friday
srv
##omes
ext4
closely
responsibility
##uro
yum
356
webservice
##ires
##ithread
##fz
##cord
##glvb
imap
##402
morph
gut
semver
kmatrix
phonegap
transferred
formul
pokemon
namely
352
##authentication
308
devic
palette
##kernel
390
singular
##comotion
bis
##adat
skins
tess
##omic
bringing
##662
japanese
febru
##g1
##insight
##conn
##rx
416
raises
mixing
scaffold
unauthorized
##dav
##abric
variation
326
vlad
##non
##dependencies
theoret
receipt
##fetch
##oker
##assigned
##lan
##████
bm
ther
expiration
tuning
6b
greg
upgrades
referred
decksite
##63ln
glassfish
##mvxhj
##63lnmvxhj
##vbw63lnmvxhj
evol
##xg43vmvbw63lnmvxhj
buildid
##1111
##vrexg43vmvbw63lnmvxhj
tied
imageview
resetting
xampp
##yy3pnvwwk3tul52hs4dfvrexg43vmvbw63lnmvxhj
##rn
apiserver
dtype
sct
##yy3pnvwwk3tul52hs4dfvrexg43vmvbw63lnmvxhjktdn5ww2zloorpws
annoy
##776
synchronize
asynctask
##outt
##665
polymorph
viz
##wrap
workbook
272
intrins
##learn
##ainit
##pix
binder
##cases
unn
qr
sparc
##ahead
hapi
httpd
collaborate
elb
cabal
##401
companies
ejb
recheck
kronos
succeeds
##ape
recyclerview
unregister
rus
attacks
clk
278
354
##cms
latitude
##cdf
blade
##andom
##omi
expire
rates
hen
february
verifying
possibilities
wpt
##xyz
crm
parents
customization
##constructor
##nvb
zeros
borders
##408
asser
finalize
haha
semicolon
qs
visdiff
##enum
nw
##i4
422
subquery
##erg
0001
improves
hotspot
shuffle
##i5
facet
rational
##747
reliably
tune
##ingly
inbox
detach
satisfy
##calendar
invalidate
worried
##bx
##pdf
##2018
##gw
##angular
nuc
jc
reproduces
i5
traditional
tam
erlang
419
bootstra
porting
511
##thr
##webview
octop
destructor
##ortex
reaches
##f80
breadcr
recon
##meta
firing
incorporate
hanging
distributions
artist
alpine
oracle121
sqlalchemy
##email
hypoth
retries
##viz
dense
rubygems
saml
alg
newlines
upvote
prote
occurrence
aac
##rz
joined
refused
ivan
foss
##createuser
hls
##sson
fight
intentional
vulnerabilities
monot
##locomotion
##fk
##cmp
influxdb
plays
gitcoin
bubble
##ago
gettext
nok
sides
transp
gridview
enjoy
##icket
median
##las
unread
##hamm
##requ
##rich
##wrt
##outs
safer
boundaries
detector
overwriting
poster
papers
typicode
ps1
394
329
##compiled
##cle
rod
##ando
feasible
##bh
creative
##ssh
burn
validations
federation
387
##long
##demo
acknow
exclusive
chem
427
pln
##978
arrows
lowest
stages
##links
nut
tricks
punct
viewed
##wait
bases
stardust
largest
ash
##machine
##assian
quota
##0c
excess
##secut
midi
sparkles
localstorage
##onsuccess
##443
incorpor
##391
bab
november
bomb
locales
complains
399
kra
##pkgs
robotlocomotion
##make
intervals
fidd
refin
budd
hock
##environ
p4
gesture
continuing
decom
##0001
0x8
2fes
##746
293
##xj
isnt
packaged
kern
mdl
##ims
##yw
##focus
cosmos
bak
##t11
opbuild
repeatedly
visitors
vocab
##u2
##logical
subclasses
kv
777
##i1
anticheatfounda
zones
tmux
succ
##pid
interop
##icates
347
335
lor
calibration
##interpre
dictionaries
opera
##emod
dv
htdocs
315
wtf
bias
paging
##rust
insecure
##publish
##pbi9
razor
282
429
2ft
qualified
375
tekton
killing
nano
##history
pocket
weapon
##331
412
primitives
kline
ner
executeaction
transmit
dispatchevent
##tz
##cred
plunk
expo
##magick
waits
suit
repet
rearr
evidence
##pattern
##encer
numerical
##lia
##watcher
mh
apologize
##vable
##keep
##channelhandler
##aving
499
##nm
scaled
organized
votes
##edge
##actic
##graphics
misunderstood
estimated
xb
redirecting
285
##era
entrypoint
mailbox
##ullrequest
305
recommendations
s1
stash
lights
cran
418
##installer
voltage
##851
frr
handlebars
##vik
ttl
credits
##yzs
scenes
incident
hate
##cam
##fusc
tonight
techniques
##star
##servic
hood
expectation
ticks
existed
261
##tom
mul
dimensional
r12
multib
430
atlassian
5cp
associate
##power
cloudflare
bay
l10n
r14
december
483
cookbook
##information
##antir
harvest
commercial
vac
css3
openid
alf
sweet
##devent
roman
##feature
breakpoints
cancellation
inherits
##5s
websockets
##281
##islav
2feslint
eager
workshop
unify
##infl
palantir
collecting
##finder
revised
coupl
##nzx
hashing
##t09
##httprequest
6f
298
5cworkflow
emitted
5cpullrequest
##assistant
libre
architectures
fli
untested
efforts
pmd
prefixes
##venext
publication
qubes
888
consecut
##ilst
grub
journey
##m2
park
nock
##ynamic
chron
dlls
lx
##cores
aspects
createdby
skb
impression
##ifs
##kc
integrating
concatenate
295
normalization
##isted
synct
oid
getters
misunderstanding
##381
riot
discount
##program
pit
fundamental
mgmt
##t22
4000
balancer
lies
ipy
476
googlecloud
##brew
sibling
utilize
falling
r13
btr
prism
featured
cmssw
unittests
libx
begins
watcher
##ota
inotify
shiny
ult
multiline
406
snmp
formal
ish
cgf
gab
worksheet
uppercase
asynchronously
pipes
losing
reused
nz
bounding
sysfs
substitution
##ordered
unwanted
##serializer
lxc
merely
##atabase
##962
meanwhile
normalized
backing
##gers
win64
filepath
manifests
v1alpha3
409
##tywlul
##velop
delivered
##lic
preferably
413
backbone
##371
##cafee
348
playbook
legit
##upgrade
##asty
##mj
realtime
valueerror
405
shipit
owl
359
##privile
crt
328
predefined
##animation
wikidata
502
##ereader
##405
system32
descriptors
greet
##strategy
##rain
##ctrl
accomplished
intersection
acts
##invent
gadget
##rg
##af0
organize
shit
unint
survi
hacky
##onge
##isms
brad
##prod
autoload
neth
##t10
notifier
##regs
5f
uber
##validation
##che
oom
usability
##jar
longitude
##k1
variations
##3q
professional
opa
portals
mcafee
backed
hacking
curly
acade
geos
##staskexecuter
##enda
subscribers
placeholders
gw
workload
insensitive
##alert
##vf
idiom
movenext
##lining
libm
##span
peers
rl
0e
jumps
339
detects
createddate
outgoing
##plates
##351
20150
candidates
##elect
alib
tweaked
##ista
permanent
intl
##environment
ade
kg
jozef
localisation
##foundry
mockito
##u1
lf
##ipped
determining
##bits
listbox
blow
tpl
speaker
##bur
cin
##allog
##limit
movies
likes
rarely
thermal
##elength
touched
##oda
gig
##xh
vuln
##rey
codeplex
##aster
tarball
##atus
freq
subdirectory
fulfill
dag
settimeout
##jobs
matcher
publickey
cosmetic
##mce
uiview
relates
ioexception
neon
sprites
fuz
writable
vpc
multipl
bumping
quiz
##expr
prone
##itives
##jta
cython
mesos
slowly
##appender
vertically
lv
jshint
modul
##ahah
##xi
entityframework
seriously
executeactionstaskexecuter
ecos
dell
##inspector
moon
##glass
dumps
andy
plnkr
sebast
##tri
mur
snake
nixpkgs
vertices
unblock
googling
##axis
derive
overloaded
##985
##validator
##database
##channelhandlercontext
##idelity
liquid
##972
##launcher
qml
truth
vtk
##assets
##erge
mj
##mvc
versus
##academy
corpor
##fed
##windows
pros
csi
modifieddate
tha
##icons
erase
uitable
highfidelity
##lb
ryan
typings
##std
nova
alot
falls
thumbs
##zero
20e
##props
devise
345
##checker
fk
abbre
wikia
degrees
##title
##igo
##kar
##w50
fh
##words
##anbul
mesa
latin
##779
##aved
##servlet
toml
whilst
twil
##messages
434
sugar
##will
consumers
vague
todos
896
fewer
quartz
gid
exposing
spider
reproducing
##ulates
subnet
reserv
2048
tin
##abst
9000
heavily
shaders
##975
cul
jmx
##inel
466
birth
rebuilt
##hjk
lightweight
##essage
##ayout
8a8080
rc2
383
mell
stating
tinker
343
finishing
vendors
##geo
navigating
cow
recognition
europe
proxies
550
574
demonstrates
wasm
clutter
purely
##arian
efficiently
stacks
gle
407
everybody
sitemap
v10
484
volatile
504
##ete
##alog
##iko
##773
nearest
##native
blocker
rud
advantages
##j0
istanbul
osd
inefficient
##uted
enumeration
manufacturer
sybase160
mc1
##urally
gson
usd
464
wherever
delphi
##gging
##seg
rollbar
qq
##icorp
equations
docx
##software
ienumerable
433
d5
hspace
##identifier
362
0500
##mgr
##observer
##vpn
325
margins
yea
modifiedby
##cach
dqm
authority
scient
hue
sax
stripped
multithread
##bots
adjac
##jan
improper
yan
acme
ore
affecting
012
##esktop
cnt
invited
canary
transient
##kp
mort
##ainitabact
460
continued
disables
##oi
testng
##eg
##atrix
alibaba
vuet
accesses
forestry
separation
joint
int64
##783007
process783007
strength
allocations
budget
##emp
ive
##variable
##stic
test1
##managerimpl
macports
mol
annotate
##isa
purple
##pointer
0x000
##110
za
##phones
##haust
##3nyyy9tywlul
ie8
prog
patching
growth
devi
jms
win10
##qual
minik
437
coreclr
clustering
ieee
##she
nx
zomb
localized
2520
sane
##uum
asoc
iterable
entropy
##lets
cheat
runtimeexception
analyzing
reasoning
##failed
666
##itors
premium
fejta
christian
wraps
003
attributeerror
scrollview
bod
##rint
btc
hashicorp
##hape
chocol
##aware
##ilog
i4
cask
##itute
##tex
weblogic
reward
pinning
corefoundation
tinymce
cancelled
periodic
reducer
clash
##zzle
coder
##3p
##775
##outputstream
stubs
substitute
es5
##0e
complaining
keystore
alice
rr
##leneck
resort
semaph
jere
exceeded
xhr
tooltips
adjusting
dwar
holid
abd
particle
##t14
stephen
yt
tld
dia
googlechrome
##t16
tcl
##mobile
cocoa
population
436
##team
aure
wrt
patrick
authorize
576
jonathan
346
lch
##eta
thrift
##etf
engineer
cash
argue
strategies
##zv
452
##alt
lee
##abstract
cpython
ie11
dsc
setters
simplicity
##contract
minecraftforge
ian
suse
##yan
##fmt
bottleneck
##pit
rounded
historical
neighbor
minified
swig
##sum
iirc
##ening
cmp
487
ingest
gls
primar
566
408
firstname
##rig
uint8
programmers
tsc
nunit
##help
507
tight
arb
consecutive
traverse
terrible
##imo
officially
sentences
##yd
mssql
##rror
minikube
i2
##x6
colored
pycharm
iom
##imulator
##x7
##nj
linelength
##vet
tum
purge
##fers
##aling
wine
##icles
mojo
##filename
inconven
smith
0x00000000
389
symlinks
##streamer
gracefully
itests
blk
415
##phr
uit
617
proposals
wang
drain
vuetify
overkill
meg
##ifiable
ada
##wei
##9w
fantastic
arrange
fuzzy
##invoker
moodle
##t00
sher
##float
variety
streamline
##mong
imagemagick
boun
6e
eno
parses
##pager
##codereview
6c
essentials
refreshed
##rim
##rian
wget
##zc
mux
rocks
thumbnails
##managed
rxjs
getelement
fft
##filters
##adi
observations
##amf2yq
##edriver
##mount
p2p
serves
##rows
##section
##hook
##5j
notices
338
##inal
##assertortest
popover
resid
titan
hacks
##fam
##mitt
urllib3
fasterxml
odo
##p1
##oration
isolation
chocolate
hides
miq
xia
##anged
corporation
reasonably
portallog
##446
persisted
y29
chromiumcodereview
portallogassertortest
##clip
qc
refine
##clib
##oso
##enn
##ole
primarily
##micro
exhaust
cats
completing
prototypes
##session
fabric8
go1
unbound
chips
linus
##gd
##zu
identifying
jsbin
adjustment
523
concatenation
preload
##mr
##enko
trin
467
decompress
portrait
spyder
##ablebeanfactory
polyn
454
mixins
##align
emulation
pager
##adb
##req
##alling
resc
mcs
typo3
ix
sdks
349
bann
##t15
overlook
ensuring
iterators
reusable
alexander
barrier
##3s
##edy
##controll
##defgh
r15
vg
accessor
##stage
l6
##lac
plant
injector
##be0
##ido
mirrors
figures
lexer
fastest
behaviors
envoyv2
amounts
20170
##5cnfsm4
sp1
##endo
el7
402
##raf
##rex
##hci
##sock
##integrationtest
##shift
measures
##2010
spending
maria
classifier
##olo
brace
##maker
openst
opensuse
281
##curs
allocating
##t17
lcd
##creen
scrolled
##745
brid
wakeup
##arks
linearlayout
adaptive
geom
g1
2fnode
i915
rbenv
##party
visually
idl
##agere
grate
##2013
470
271
conventional
expanding
##rit
##anox
368
neural
joe
decorators
vf
awa
##q6
cofh
##ponse
##bj
##kw
##isplay
rbac
##elements
gcm
openhab
obl
##bel
teacher
##finished
##asset
phon
apm
##aca
steven
##778
##atas
##u8
##anda
plas
youtu
wit
msft
0400
##owire
referrer
##dot
interactions
btrfs
438
yxb
##lar
##q4
##mouse
##uni
convolution
joy
sponge
##apse
##theless
5e
##score
rhs
tray
##t13
backups
positioned
##buff
dealloc
zuul
lift
island
342
hdf5
permitted
datatables
sole
##ummary
differentiate
##private
##uns
claiming
##otification
knock
##hread
smell
sqrt
sourcefile
r6
printable
confuse
##oogle
pyqt
pics
unus
salary
##canvas
mage
mellanox
##selection
correlation
##aki
reserve
##printf
transformed
##nb5
ccxt
##marsh
equip
commerce
signs
rds
descend
reversed
odata
##wood
httpservlet
##finity
publicly
##t18
##971
##uture
##gebra
containerd
portug
##cers
##hus
##injection
ietf
i1
les
quoting
preferable
tib
##tw
mav
##tax
town
facts
##spark
noting
gat
cwd
cad
pwd
587
##company
##r0
exploit
##rat
naive
##erning
ourselves
intersect
pum
##grams
polynomial
quickbook
flows
##backend
##t12
jn
miner
##club
serializable
##find
relational
principal
##completion
ku
roo
instantly
##yyyy
##product
##autom
##unte
457
##2012
periodically
##timer
xo
##cad
dedu
inver
372
##cher
388
bytecode
tho
nevertheless
irr
##ilation
officed
mos
occured
##aq
anonfun
##alg
resized
tro
358
unreachable
termination
eos
jak
##descript
abstractchannelhandlercontext
##usa
534
##etup
uikit
##agle
##portal
##ographer
backported
mitig
##ldata
droid
exclus
##ghz
ox
juli
pump
##alo
excluding
##769
buildcraft
ecosystem
426
##chi
talks
doctor
involving
formed
hans
sizing
defaultt
subtitle
##762
##749
##flag
##uvw
rbx
newton
453
##abber
##reat
exo
alle
coreos
liber
mistaken
##mirror
##behavi
johan
cloudfoundry
libvirt
plat
321
##router
##esearch
kom
shipped
facility
435
##wi
363
resum
##release
punctuation
##h0
##rev
uat
##orce
gemspec
##aper
invari
514
xg
459
524
consent
20click
unspec
##defghij
##detail
subtle
redesign
tegra
584
##dreadful
##wfpbi9
sso
chmod
mining
lit
##rict
cable
sqlserver
prices
hotplug
buckets
stringify
concerning
pennydreadful
tbl
l7
raml
745
callable
informations
deli
393
##description
##dest
##klmn
autob
xe
yu
thunder
suites
##izz
centre
##icken
flor
6d
tweaking
##rail
x00
rq
uname
##example
alexa
wood
##743
tues
batches
transparency
##v5
alan
indexer
discre
rac
##packages
##lg
illustrate
mxml
##math
packed
obfusc
##packet
##blitz
##permission
##lz
administration
hockey
smarter
flake8
##x5
spirit
##flix
traversal
onload
assembler
obsc
guild
subtree
##ovic
exhib
s390
##1b0
sz
relate
noarch
##urface
evaluates
540
readline
kul
##kas
ipa
googlecloudplatform
fle
externals
lengths
##wn0
odbc
486
grand
20180
borrow
malformed
proport
hazel
7c0
490
lived
v15
##icip
1s
##q2
##oms
colours
phones
##3m
jitstressregs
cascade
7e
3as
intellig
associations
gci
terminating
4th
##671
##472
510
##persist
altered
felt
##lor
##isense
0x7f
sooner
cmdline
##yr
##based
openwrt
resist
cjs
registr
parentrunner
retrying
##athon
##encoding
pointless
dnd
##qrst
collisions
##kjh
amqp
##emodel
centos7
331
cxf
##eread
hmmm
##effect
congrat
##ffffffff
helmet
squares
##incl
rib
355
consumed
2fgithub
fifo
correcting
unrecogn
##vc3jjl
##wave
stumb
conference
##constra
volunte
growing
##failure
footprint
visualizing
##hack
swe
##nov
errone
deals
smallest
##q1
tsx
560
tackle
##lk
eol
20100
##yo
peek
espress
gravity
ntp
##klmnop
##oter
reclaim
clj
viable
buffering
recurr
##hort
urgent
reaching
##pes
##apters
unwind
##j1
##member
til
gee
barcode
mercuri
##lookup
517
tens
##yzer
headings
multiprocess
0xc4
templating
rolled
incremented
stackblitz
##hen
369
bgp
admit
520
##nu
##defghijklmnop
resets
##qiec
##times
desirable
##encoder
teammates
855
##embed
oop
624
##uage
msys
molec
autogener
554
deadline
stateful
##nostic
##odo
ez
bgl
plz
confidence
##rif
screw
gan
##mvbwfpbi9
dies
unassigned
##qrstuvw
popolo
widely
##headers
##last
##static
codecs
howto
firebug
coefficient
##uru
serif
lookups
picks
##rod
##mailer
##748
correctness
##prit
##etree
diagnose
tsconfig
##wizard
##support
recal
dojo
##l3
494
##a00
retrieval
##qrstuvwxyz
opaque
buddy
peak
gib
casts
##createuserainitabact
cname
wink
uitableview
kconfig
mainwindow
ultimate
##c00
parity
stone
unordered
landed
passive
knumberload
aggregated
raspberrypi
decou
emberjs
italic
004
##q3
##convert
translator
discussing
bow
##k2
##931
decoded
autotest
ration
##ende
scans
##463
580
##ians
simplification
jay
manages
forg
metam
##otic
modifies
291
scanned
pools
##bootstrap
accounting
##5qyxzh
lub
##661
##opard
l5
439
##772
##methods
v9
wg
##defghijklmnopqrstuvwxyz
##notes
competition
##w0
continuation
secondly
experimenting
guava
onboard
becoming
##ija
pyg
##inflater
##real
underne
eta
##you
0x40
rdm
x509
fxlabs
570
transmission
##show
##ancial
fran
avi
##otal
##night
##ruit
hazelcast
throughput
callers
tern
513
##agon
notebooks
##home
##etary
modifiers
underneath
pinned
stacked
oo
##cial
##ogen
##acl
selinux
infinity
##return
0x5
codeign
severe
andreas
##receiver
##478
kir
lastname
##eno
oe
##factor
pennydreadfulmagic
##andin
salesforce
prefixed
duplicating
lkml
nfc
validators
##nodes
disclaim
##981
smb
liked
##ignal
##447
##469
489
imply
768
sind
iptables
##phyr
824
sst
gir
cheap
1920
cudnn
mxnet
axios
highcharts
syncthing
hellow
##executer
##o3
552
##9n
##ja2f
##mith
379
communicating
##orted
exposes
disks
##aste
##qld
ric
examine
sta
##fig
##ocat
##441
tuesday
crates
csp
0x6
##limited
downs
living
a11
uiimage
##shipit
mathemat
pwm
446
checkin
##eeeeeeeeeeeeeeee
downside
comprom
prevented
lightning
submissions
532
8oo
downgrad
whoops
diffs
fbshipit
runworker
##deb
##close
##ransaction
##kd
existent
##attach
##hints
rethink
armor
vertnet
permanently
python27
intellisense
tower
hurt
kitch
##rac
##pub
groupby
canjs
replying
##plist
negot
orphan
kore
##ida
ijk
dru
cellar
dividing
##oooo
496
##bly
nonexist
determines
hdmi
trimm
webhooks
minify
##rill
##probe
teamcity
libav
##osp
556
enemy
swt
reworked
reloaded
rade
##────────
##jf
hoc
targeted
ledger
talked
holder
brightness
564
tes
rol
##xq
material2
cflags
hung
##clo
constructing
prerequisites
deterministic
onchange
terminology
naturally
slick
appcompat
badly
uint32
openm
sant
reputation
##issues
##perf
noob
nicolas
netflix
meter
##blue
rotating
comprehension
425
abbrevi
##torrent
dvb
shares
252f
accommod
gopath
sak
ontology
kanban
webdriverio
vlan
##9h
blender
threw
596
solaris
numerous
roslyn
elo
preserved
##aly
382
rgba
##oolbox
visited
measurements
edittext
597
##hammad
##istration
convinced
##design
mercurial
##5z
##ttype
multis
circles
##nh
1px
autoc
isa
ami
reflective
financial
gms
##2phdme
codeigniter
backt
sett
ifs
regularly
##xz
##bol
crafting
530
gender
r7
blend
527
supervisor
555
wider
cryptography
hyperlink
zk
##argumentexception
##vim
djang
plural
##l0
workspaces
##bow
ttf
536
##a80
ifdef
##atim
##olib
marketing
actu
lem
sanitize
ongoing
0x20
caret
##awesome
##anager
##ittest
taxonomy
syntaxerror
radar
kent
desire
##plit
occup
##mint
walking
##da3
##configure
##x8
##agov
disappeared
##kjhasdf
validity
unload
zephyr
461
freedesktop
##asdfkjhasdf
i8
##hjkasdfkjhasdf
lob
arlac
bogus
ware
arlac77
##ja2fnzx
##lling
icu
locals
flexbox
oak
923
612
##hjkasdfkjhasdfhjkasdfkjhasdf
hz
initiate
enoent
##esc
subtracting
##addy
##742
leve
##inet
revisit
grateful
responded
##urlconnection
wt
##ria
distinction
unusual
webapi
deserialization
adblock
domin
interpretation
archiving
reactjs
thurs
##lifecycle
##arness
##emption
fff
pkgs
##eploy
##iob
##p2
tons
horizontally
##f8b
##chen
eat
##fox
385
##isition
##nag
mous
portugues
leverage
lon
muscle
##80f
##imir
rdd
augment
##gk
##present
regenerated
strc
cgfja2fnzx
##jb20
scrolls
licence
##disk
downv
##iddelete
sails
667
##3nyyy9tywlul2phdme
##adow
stem
umd
prompts
continuously
##s2
datam
goroutine
khanacademy
##741
invokes
eax
accordion
ought
##covery
##nbw
elections
brute
611
paused
dsp
yay
emphasis
##x10
transformations
mona
373
layoutt
remotely
acces
##2f6
##py2
##infotests
2ff
wf
##cart
confident
installations
feedstock
congratulations
##ographic
heuri
restarts
uris
epic
draws
autod
slashes
lw
##sync
398
regressions
##f00
20160
sage
privilege
shorthand
openerp
sympt
directed
exceeds
songs
genome
intentionally
##xk
mapreduce
tough
594
parcel
propagation
invert
tie
etcd3
aliasing
anchors
clears
documenting
bookinfotests
378
pds
##448
##viewmodel
##aller
licensing
##condu
447
##sen
fifoc
##appy
sli
##rock
##castle
518
udf
##prefix
justify
##´t
executors
longest
canceled
shopping
endless
trinity
inlined
##2014
bcm
z0
findbugs
neov
m1
attrs
docstrings
dalvik
rebuilding
##qf
mig
guarantees
##wifi
periods
arab
fno
1280
ints
joh
pinpoint
vhost
##integer
commander
silverlight
intermitt
##apack
ours
mdc
##through
culprit
##iring
fifoci
##468
glide
semaphore
351
stylesheets
plotly
mails
##olar
##sex
557
teleport
bang
0410
##functions
citation
gf
surrounding
nh
##ona
autore
##otype
##phe
r5
ddl
throttle
##enberg
select2
##region
libxml
confid
ecs
frustrating
##provid
bootloader
##conv
logos
##ario
##kov
748
rotten
incr
##yname
malicious
wsl
##olver
ecd
hugo
428
##phrase
publickeytoken
pcl
restructure
##orb
jeremy
##raged
634
##urious
##annotation
disclaimer
##765
db2105
xmpp
##i6
##tter
kivy
discou
##ecom
promotion
getelementbyid
##449
workqueue
jessie
wei
##clared
farm
hockeyapp
##rob
##tv
##ipher
crack
raf
wired
455
ptal
herokuapp
usp
##m0
filterchain
##t19
pumpe
960
ships
jumping
##iper
##thouse
vlc
asf
tck
##sell
##phys
unzip
xposed
##resco
##ulators
rsync
glue
spells
lacks
jur
##mdv
chromedriver
separating
gamma
jin
##a5cnfsm4hm6
fitting
abis
reco
##i2
econ
translatewiki
robots
apache2
##ometer
penal
bart
jmeter
quantum
##bindings
reimplement
bee
evolution
werror
##gutt
national
nop
geoc
firestore
activemq
##jit
##umar
thursday
599
deploys
##hv
referral
preprocess
und
##estyle
##dc9
##479
outlined
outputting
##exit
yang
cities
##live
enumerate
spectrum
uploader
splits
##acted
portuguese
psr
mechanisms
##gq
##ernotification
prelim
ssr
##bnb
##multi
1200
361
##ission
##equal
pear
##phon
zstack
##kv
##mart
dmg
alongside
winforms
neovim
downloader
scales
opcode
##applicationcontext
nsstring
defconfig
concurrently
##bea
igor
##velope
##zxiv
test2
yy
styl
decoration
567
aad
geojson
planet
##ews
identification
##topic
##qyxzh
577
392
750
attend
coffe
wrongly
blogspot
ew
hunter
swf
outstanding
7601
##bay
cmdle
multicast
d3d
##ce4
pu
##731
unrecognized
designs
2fmon
awkward
awx
reconc
##connector
apples
driving
jhip
alfresco
graphical
vala
animal
counted
fourth
##racy
samba
##0a
509
intptr
serge
opinions
##465
##eref
franc
r10
prefetch
quicker
giant
##ardo
uh
##documented
interf
##wire
captcha
unclaim
torn
googled
signin
2fmonorepo
booking
##basic
logfile
plt
marlin
doable
intermediates
pel
ambigu
twitch
##contin
##ofs
##mvud
win7
unlink
superfl
ltr
##t20
wonderful
ql
qos
rng
6a
##6s
##perm
005
ppc64
crawler
##entries
##phony
590
monad
scrape
chen
unspecified
##9zcmmvbwfpbi9
helloworld
##azz
chaining
doll
chrisgutt
chrisguttandin
##c80
lockfile
sponsors
moby
sortable
xenial
lect
##iger
twilio
##awning
pushes
initializers
##omics
##normal
##iffer
collaborating
avajs
authenticator
0x80
sunday
##hed
##visible
director
uglifyjs
fuel
uml
drives
endif
##461
##mate
puzzle
##edata
labell
resourc
wednes
hesitate
importerror
##rj
memcached
participants
##execute
##kf
addn
##urm
blaz
c99
fpic
validates
reinstalling
pam
##rovider
visualize
nth
##ca3
drawback
##edict
xmlhttprequest
##631
##r3
auth0
w3sch
ocean
injecting
chocolatey
##oa
##i3
341
redraw
externally
##k4
alphagov
androidx
aurelia
553
##commands
##optim
chances
promote
sphere
webui
516
patience
##sher
ggplot
juju
##961
492
##isel
##circ
freezes
thaum
importantly
1800
nak
##oli
updatebot
##atell
announ
breakage
rotated
jhipster
nasty
583
##tos
assignees
##itled
##theme
dto
avx
airflow
##resor
##health
portalsmoke
##rules
##uli
##ums
tns
curiosity
upv
uninstalled
##olf
behalf
##tu
##dg9
##itles
kids
fu
458
##ilot
appengine
rationale
py36
brown
algo
terrain
488
cust
representatives
joseph
natively
remoting
c3jjl21haw4vamf2ys9
http2
##yu
vn
##share
0x00000
lighthouse
##56789
##visitor
##q7
responds
touches
vit
parad
802
##ieve
##yer
prefs
mocks
559
collapsed
constructs
##ened
indented
##gggg
##resorhus
unfortunate
smoothly
ole
sindresorhus
ffi
modeling
##athers
sport
##capture
##sexception
darcs
mattermost
##pawn
##x0
suffice
ocr
526
openmp
##td
wamp
pandoc
jboss70
adjacent
wednesday
449
kdelibs
##ards
populating
twisted
##react
##oni
bellow
493
##oding
devkit
hb
accurately
##awiki
pavol
lambd
scrapy
seemingly
##ller
##expl
546
senate
uip
discarded
dus
##a01
##compatible
##advis
864
executables
equest
setstate
combat
##agrams
memcpy
openqa
orth
otp
##has
phabric
##stan
##idi
myster
agenda
toward
sold
tweets
652
skips
rtp
layoutinflater
aaron
analy
highlights
flowtype
586
thru
scrollable
newinstance
##771
##d00
616
##ulative
atomist
##erializer
dialect
##runnable
##guy
dor
undocumented
renames
nd4j
##rend
dask
pyx
phabricator
jer
dumping
enroll
dispos
damn
421
clauses
##90b
seth
sftp
##plib
shields
##schema
dpi
prid
##enable
interrupted
##qo
rdb
dupe
apparent
informative
ara
##ks5s
##chunk
lately
##tm
##xproj
##4g
vnet
##445
vas
ublock
suited
644
cw
##graphy
spa
swapped
specially
overs
##igible
bull
trend
9999
##abac
448
610
##talk
##letter
##itivity
##before
autorest
##div
##heel
##blas
##ocore
tang
##quet
##relic
protractor
##ufficient
crawl
ng2
kitchen
fills
explanations
866
yi
606
offered
mysqld
expressed
viewdid
carth
encodings
wiref
substant
pubsub
coq
slices
##apy
acquisition
shadows
632
prio
analys
##00000000000000000000000000000000
trail
satur
egl
fem
w3schools
442
##cu
operands
ron
optimizing
bigquery
archived
overcome
##462
inbound
##fast
judge
##contextimpl
offering
##advant
30d
ou
stateless
aggress
plate
##etable
##aled
fg
##mut
ovirt
comply
transfers
observers
monster
381
mocking
formulas
crl
commonjs
flavor
##leaf
p0
##anm
invoices
##haul
##balance
libst
##ecd
delegates
##rie
##azy
##ulary
wowhead
apic
stall
holy
delt
519
frequent
##push
gob
##wares
##cerpt
conan
##etypes
##errors
##sequence
529
discourse
ost
##eda
verbosity
outbound
##y2
widths
##sense
39m
dubbo
conditionally
mainthread
jade
packer
395
hierarchical
##uno
intune
nodemon
656
zombie
chest
##b00
controlling
##iiii
##datasource
pak
federated
stdio
482
kernel32
refact
carthage
##certific
eco
china
620
##qiecbag
druid
spurious
pickle
lacking
##compar
treatment
##pb25
realised
##prints
##j7
newrelic
helperscleanup
tort
pencil
assignee
psi
##mesh
odm
##ti
664
collaborator
##paper
sctp
##methodinvocation
##t08
sci
reopened
##t21
php7
leap
organisation
theoretically
unusable
scalable
##miner
revise
nulls
oxygen
##future
asserts
leon
##2e7
carrier
strat
pkcs
indexof
xor
jasper
653
##this
##h4
noop
##uko
schemes
unwatch
462
coy
##u3
rustc
luis
##473
benjam
##p4
minicon
##z0
##itan
brush
letsencrypt
replicas
plunker
lie
passport
orchard
##pse
league
invoc
prolog
##band
hall
variance
trib
declarative
openstreet
##riel
##ingle
sklearn
packag
lsp
cdnjs
horrible
showcase
##added
##gons
##onies
##iton
ordinary
unsuccess
hip
creature
transitive
ancient
elem
##ket
##buildoperation
xunit
19700
##w4
york
followup
##uper
detached
divided
w0
keepal
959
designing
##ci9
vox
estimation
participant
nid
##j4
v7a
downvote
excerpt
##q5
chains
arial
grids
pumpevents
##notfoundexception
surprise
##pf
corners
ripp
##lat
##ja2
autoscal
lfs
579
alignhash
radeon
disadvant
##lyin
614
positives
consolidate
appoint
cout
4k
jetstack
touching
por
533
712
##bles
##behavior
prompted
reachable
paragraphs
swapping
realise
subfolder
495
anna
luke
storybooks
slic
548
##lihood
##oma
##contact
multicl
din
1001
##orgs
dnn
##arse
506
##plugins
confidential
dum
sentinel
complement
##blog
planner
u0
superclass
hydra
##bell
blast
##oaw
465
##socks
##442
clou
##fiddle
##paths
627
whichever
announcement
gitpan
polar
prepend
##e00
##lation
promising
##wap
phar
sebastian
##binary
handlen
jdb
unlimited
affili
##inn
bones
s0
##30959
##ubscriber
inconsistency
cros
vulkan
pcs
algebra
##xv
##ilo
rectangles
suffer
##cc9
attacker
818
##caaa
milan
515
multiplying
jd
wow64
##reset
u8
gite
unnecessarily
##agg
emulate
##eract
archetype
vast
harmony
##preferences
charles
vmousecleanup
##pbx
##stant
##lements
##esk
##race
754
us11
##pb24
469
ogl
preliminary
##j6
##rq
extensive
actors
##hibernate
invoker
eap
bz
adc
840
iw
ww
mapt
jst
dust
##df9
ckan
relic
##ibly
poi
autol
##5k
statuscode
couchdb
547
##privileged
beside
education
nus
##layers
robo
20on
shame
reinstalled
excuse
##estart
##sey
cmssdt
bdd
usages
711
##zxn0
somethi
197001010
stepping
19700101030959
libcurl
##arser
nowhere
hackage
##volume
##nv
##isy
mish
##hard
##serviceaccount
jece
696
##wik
premature
regulator
tos
vict
vista
bert
evi
vcf
categor
mz
##indow
jecelyin
hovering
hashcode
##ebug
##uke
aver
laser
postfix
dialogue
interactivecleanup
##sdk
654
beanshell
transcript
##controls
ipynb
##p0
##atar
webapps
uniqu
machin
futures
cps
##descriptor
630
superfluous
aer
xerc
ik
mont
##cook
508
##475
iris
undeclared
flagged
##identity
nib
##rk
505
sea
##nw
##ewith
##e8b
##mw
##styles
cvss3
metas
##irt
##pbm
factories
functioning
bglil
launches
##price
viv
insufficient
##append
multiprocessing
airbnb
##ffle
zul
##db2
libt
sector
clarified
endings
ecm
deposit
spans
vsphere
##autowire
subdir
##broker
absence
equin
mvp
##uto
tony
equally
typename
803
jt
##ssss
webinspector
kills
##ttp
##alley
autoconf
connectors
##ribly
cleans
merchant
specialized
##modified
loaders
blobs
dang
deactivate
stere
urn
##99999999
501
558
mpeg
0x7ff
gaps
gstreamer
##respons
jsdom
541
subrout
paddle
specifier
yxbwl
openstreetmap
680
##u4
plasma
abandoned
ppp
doi
hypothesis
presume
##xw
##azo
##croll
##counter
cyber
##seconds
speedup
473
##etrans
463
##zyme
junk
updat
485
hyphen
##navigation
##decoder
ces
vsts
forecast
636
xfs
2fweb
##zw50
##dig
ioc
##eds
integral
covering
civic
##ighter
webm
hexo
inspired
dqmhist
##creation
tst
measured
assessment
rmi
468
trybots
##orrent
fsharp
mega
adress
##ffi
composed
ctl
interestingly
##strans
tedi
selections
nethserver
underscores
##g2
##fri
585
emb
sampler
657
raspb
vladimir
infos
##ecurity
##l2nvb
cst
##created
##pso
##opy
660
loadclass
391
oblig
##elin
##nav
##ab0
##uki
autogenerated
##leans
371
##insights
dive
##cee
initiated
h264
committer
##invoke
623
##pw
522
##tto
throwable
idf
##h2
##aunch
priorities
ellips
absent
deser
varying
##sk
scientific
##b3jll
virtio
pullrequestreview
frees
##idoc
o3
probot
mems
##autowirecap
##aa0
850
683
cloudfront
linted
cura
16384
##ardown
hipl
714
acceleration
virus
##acter
antlr
dumped
messenger
##folders
##udge
caff
bugsnag
pascal
##p8
flink
w1
monitors
##ements
817
victor
sdt
abstractautowirecap
recreated
libj
influence
7a
calculates
##operator
cars
##nlcn
##colonies
##isan
stmt
gserviceaccount
##https
##updates
kle
##dw
classmates
ics
defs
##umbs
##reate
##into
osp
##accur
##bc9
##junction
##x9
waterline
9090
tpm
##g0
platformio
relating
disreg
##arc
##cto
f90
##yxr
ride
619
raspbian
##q8
inverted
##zil
ie9
##fc0
coala
##arty
tank
##estack
vimrc
20password
tracer
##cac
testscan
minecolonies
indefin
abstractautowirecapablebeanfactory
guards
simplifying
fpm
##scr
##ceived
479
##7dt
inputstream
accelerate
webrender
##just
##aligned
mvvm
nosuch
##iang
elif
gauge
isp
##5t
604
masked
##11d
##that
t0
proven
texi
zhj
shallow
makefiles
##metrics
rak
musl
advent
##l4
spawning
geolocation
589
##queued
670
rush
subhints
preempt
unloaded
##cpu
translating
msgs
idealtree
shutting
proposing
shoot
a11y
gos
aks
emitter
613
reshape
hmac
##5625
##bor
717
##gj
beast
##rade
##ikes
##testing
##bank
zf
arabic
##vars
vap
ico
understandable
mutate
##bara
slab
podspec
jae
getitem
cisco
##k0
treats
thirdparty
draggable
overhaul
fasta
##mus
010
##clock
envelope
##gas
0310
##nis
seeds
das
##edirectory
clocks
noticing
delays
##2vy
kong
referer
607
treeview
sidek
prohib
adoc
extraneous
##high
##dao
cgo
690
##xbvb
##enderer
compares
lchija
permal
simd
gitea
suref
445
##dc4
jk
mediaplayer
##utin
dice
accommodate
sitting
subtra
licensed
s4
##aria
audience
wildfly100
libstdc
websphere
branching
yargs
pricing
##dcc
##iveness
##l1
preprocessing
particles
##1875
##poly
consequence
##a04
ino
##etry
sickrage
weapons
##calls
##d80
##iration
##builds
enqueue
repeats
588
enzyme
##cube
xref
##🔅🔅🔅🔅
gdk
fq
angel
bloom
pdfs
##osing
excited
475
quer
##urb
##cience
sendgrid
simplifies
honor
polygons
pmem
converters
539
equipment
478
##conductor
##lands
rescue
stabil
fwd
tj
partly
528
729
bosh
##yy3pnvwwk3tul52hs4dfvrexg43vmvbw63lnmvxhjktdn5ww2zloorpwszg
471
replicated
##jlju
##aview
stumbled
pivotaltracker
##aha
losses
arrive
3094
treating
equinox
doug
##complex
pts
sac
sliding
##2fs
##ponent
##rcml
recorder
lighting
n1
airc
signalr
vill
##sheets
ambiguity
msp
##desc
decrement
drill
tedious
##wal
innerhtml
##itest
ia64
472
zmq
redacted
facilit
##games
george
##amera
udev
##qldx
##d0nq
thousand
approximately
pret
##ori
##46r5
resolv
hua
##p3
pullrequests
grou
bmp
smi
##7dt5e
w3jlju
w3jlju7dt5e
zhj46r5
zhj46r5d0nq
ocqldx
##f7fmy
ocqldxf7fmy
##ifying
713
r8oaw
##rcmlrw
r8oawrcmlrw
soph
##hbm
hmcts
##emer
##online
##ymbol
20200
##hive
nonce
677
##lerow
speeds
parameterized
opbuildstorage
implications
activiti
856
##asyn
##bbb
incrementing
indicators
lastly
loadscript
615
814
opam
instantiating
toy
mimic
discrete
propri
nlog
satell
hotmail
734
gtest
fst
##kel
similarity
happily
universe
##vud
theano
##y5
##arth
##many
delimited
##captcha
epub
##m9
##rimin
##losed
tain
##yb
cef
ling
undert
##rames
acknowledge
wich
##ca0
684
##catalog
verbatim
##pv
##system
##esian
cnn
##plane
##rails
##gred
derefer
mobs
importance
hk
pch
##aw9ul
surefire
esi
u000
incredi
forks
##mak
##761
hourglass
scraping
corpus
dcm
20a
fetches
##analyzer
benjamin
sigh
cortex
realistic
inflate
proportion
##dexec
##de0
0ms
##u0
likelihood
mfc
xz
451
mdn
disregard
settle
fruit
captures
epoll
wix
modelica
694
##defs
##days
spawned
asio
699
##cz
##t07
##ership
##lective
okonet
##variant
uchija
##ff0
r9
unicorn
bint
privileged
##5qcw
painting
##rollup
builtins
##sky
garden
ools
pooling
vbox
##quickbooks
##scanner
pavel
teaching
nsd
repaint
xib
rearrange
##ugh
mounting
##peer
roottest
819
puma
##1j
doubles
nich
##umeric
767
##filer
##guid
##aya
warp
apiv1orgs
poorly
anyhow
nbps
buildpack
bern
##uz28
getvalue
doom
##mysql
##proto
0s
hydro
geomet
ahh
reopening
summarize
##directories
##autotests
enumerable
telnet
ansib
5s
countdown
##indent
jaxb
violations
shortest
quas
cni
pocketmine
dispatchmessage
cocos
543
opbuildstorageprod
538
ksautotests
rar
instit
cockpit
##ce6
substr
holo
##istribut
hacker
##cia
zon
##ce0
vcp
turbo
setups
began
##pq
carlos
invitation
##iva
lucky
incredibly
mtd
##fresh
glyphs
##buffers
##consumer
602
##sb
637
rebasing
coordinator
tramp
##alon
loot
msgid
039
voted
dynamodb
efi
##a5c
young
delegation
positional
686
sean
parens
##otcom
reusing
blas
mingw32
eloqu
shed
multit
##tail
jetpack
funding
##kub
michal
##filesystem
730
william
clob
thick
envi
737
varn
582
##fe0
##ledger
haproxy
##appe
fear
refined
##containers
nevermind
iq
##dee
wq
leds
oned
##ac0
industry
sysdeps
##hid
##sim
##dc0
##features
##crm
##h7
ancestor
##zs9
##u5
hardcode
chained
nhibernate
##cc0
639
pcap
plone
##debugg
entityframeworkcore
535
lps
##h1
ppa
##ad0
##ondon
fundamentals
p3
##receive
##2fw
largely
subtype
painful
monorepo
687
##471
cutting
##b80
apex
polymorphic
618
invariant
junit4
007
##loss
spike
edi
airport
identifies
744
kdebase
##v9
overloading
peripher
834
563
keystone
595
bioconductor
keychain
bos
httpp
##contents
##lite
##napshot
quotation
diver
framebuffer
##mhz
champ
ffff
##okit
ark
##df4
bird
##xture
seeking
##eweb
beforehand
cbc
notion
fortun
companion
573
rejection
##spection
t3
comparator
##actory
kate
vps
xerces
coher
pets
subtraction
hv
pim
##hole
##ylon
##teness
##mill
##xxxxxxxxxxxxxxxx
##mare
##portlet
tuned
##intent
assemble
##canner
##ec0
zooming
2frollup
jor
tine
##ytics
cairo
##atson
stanford
teardown
20100101
##pthread
##listen
instruments
##brake
measuring
compens
sympy
##compos
689
preceding
625
ogg
cmc
##wing
##xbvbmvud
hq
comparable
cols
stripping
mydomain
resultset
homeassistant
877
##istr
pir
ionicons
beneficial
##poke
mex
chess
partials
##confirm
undef
parties
diagrams
overlays
##beros
surge
739
funders
##scre
une
##2ee
liner
idp
##alal
##xo
911
phases
findings
626
569
mana
bye
##odon
italian
versioned
755
unpacking
r11
acs
handlenonsuccess
##llllllllllllllll
##cloak
protein
greetings
meth
serializing
746
nlp
eventing
710
retrofit
rewrote
##lv
prioritize
dram
lou
sems
##anddebugg
nebul
bodies
handlenonsuccessanddebugg
marco
##56e
mkl
##fee
##nf
##olor
sts
tesseract
##dictionary
gdal
568
##k3
##ac9
##sof
iommu
##src
##encode
ternary
agnostic
drafts
bj
octocat
gimp
##serve
629
nvda
expiry
icing
##vention
sof
compaction
dutch
##imit
##rog
incorporated
##ertext
cs2
##popup
routed
archlinux
crio
contiguous
cameras
593
##utilities
1970
banned
##astore
avro
presses
unlocked
spotted
packager
820
bibli
##aid
006
##ustration
offending
handlenonsuccessanddebuggernotification
##omatic
##dc5
##caf
##llog
underline
testrail
697
lav
googlecode
toggling
kur
##amerange
mcp
coales
1440
##umble
##csi
imper
l8
##route
810
accidental
##compilation
rtt
theres
##ema
coffeescript
iii
zhang
pouch
659
##cro
grows
##dynamic
smt
undes
549
##yte
##h5
autoroller
##431
ki
prune
757
transpose
batfish
compositing
441
816
netcdf
cumbers
recurring
aqu
##pee
glsl
##m5
swingappender
shopify
4ff
##zlo
nand
ffffffff810
misspell
mitre
##percent
##binder
##solar
vd
##23456789
whatsapp
restaur
logically
##ething
vehicles
##bec
c3jjl3
consolefull
##remote
##oproject
codice
##emode
locator
recalcul
cac
prebuilt
##configs
##k5
##quir
##da0
addnamerange
millions
cumbersome
723
clarifying
rnn
umbra
##tie
lane
##camp
##u7
vet
plexus
moh
707
##queries
##efault
magento2
galley
libusb
##ttest
##uded
noticeable
balancing
##hor
timings
namesp
mdash
genes
mmm
svnmerge
transformers
598
##bud
insn
initialisation
##fortran
ipod
1ms
##akis
##elper
gis
##unused
##tee
dataflow
l9
mailer
t4
hdd
674
metro
numbering
481
##rice
cer
gutenberg
676
764
vocabulary
unmarsh
curse
##ertain
dqmhistotests
ink
##catch
confirming
##backup
libtool
011
##aration
##accept
##ej
absmiddle
##h6
flood
overloads
seven
futex
##drive
##lopen
newtonsoft
##mvy
gpus
##iga
mpl
nss
initialise
##86f
669
frameworkmethod
decay
rtmp
confluence
suspicious
##i0
para
moose
##a06
hay
##handl
ramp
##codecamp
debugged
vel
##helpers
bellatrix
kiw
##h3
mtu
##r4
illegalargumentexception
threadpool
css2
##etermin
fog
##agen
##clone
431
##keyboard
##esult
magnitude
presets
implied
printers
##5200
snipe
##yy3pnvwwk3tul52hs4dfvrexg43vmvbw63lnmvxhjktdn5ww2zloorpwszgod
thoth
idem
quirk
##care
misses
retained
smiley
##apic
justin
loses
ingred
agg
rhel7
##delay
693
##bitmap
minion
fles
oli
542
ome
##ictionary
##urch
donate
kerberos
##photo
ccc
970
592
myst
##estorage
disrupt
##pj
reorganize
benmo
summer
703
robin
meets
##idim
clipping
freeing
##oq
shifted
pulp
intrinsic
##t05
lxml
agency
##lient
synapse
completeness
760
tolerance
722
ingredient
##sobject
myclass
polyfills
##ollection
##ppe
amer
ard
##ubscription
##san
profit
##jb21
##fb9
##jay
pnp
##eadm
##devic
##losure
sleeping
exem
ignor
coords
enforced
##otle
jh
benmosher
##ador
freecodecamp
##appoint
snack
chi
phen
hacked
##hmv
resolutions
austral
evening
##t06
proprietary
logback
lis
hast
mounts
##certificate
ssc
##leep
769
##socketimpl
uib
wag
709
##5252
crucial
##cec
##oute
##erik
##emitter
getattr
iphones
acting
lstm
##ormal
##umi
destroying
sourced
##2000
##aches
724
elevation
812
ia32
813
bought
freedom
proguard
wrench
turtle
##300
##creator
##400
lnk
aura
ses
whatso
##them
pinging
descending
mpv
constrained
##parts
p5
##prof
##phase
frappe
##1n
##gue
chroot
784
980
troll
sj
##iculum
pm2
##serror
832
getall
imx
833
##bear
##deff
##promise
##pie
ansibull
binds
visiting
neutron
grabbing
647
pcre
##estamp
coverity
##t23
565
awaiting
standing
uninstalling
hdr
hashtag
hashed
##tek
finite
viewpager
inspecting
es2015
18f
823
prun
##o2
foreman
koffice
##archy
amo
0x12
excessive
arn
##blr
##w7
811
concatenated
lang3
gaj
##u6
exclusion
reservation
zan
partners
lens
##mcore
##setup
0xb
##serviceimpl
affinity
mediawiki
recognizing
increments
packs
wicket
lever
suspended
##g4
whatsoever
dimit
##etra
geon
cuck
kubeadm
witch
ages
benchmarking
tiff
gluster
tople
subjects
buildings
##perform
artific
##ande
administrators
indu
bins
evt
##lop
sidekiq
##ac4
honey
exoplayer
keypress
gradients
varnish
##6000
uis
##ilus
##modal
issuing
##transform
logins
plaintext
##agi
##e80
##dra
buck
usecase
##middleware
##kind
phet
##download
##udes
nets
thoroughly
muhammad
##yj
jum
breadcrumb
waves
graphite
eloquent
##fred
646
##keh
990
eliminated
deliber
790
##isallow
##water
##ei
m68
soul
passenger
0x00007
leaking
continuum
ipadmin
hotel
dod
temporal
##indicator
gac
##buttons
##gpu
655
php5
graceful
nokog
##dns
mathematical
eph
##ab7
sysc
##asia
##estrong
multicluster
lut
vic
hardly
nether
994
crap
masks
traject
referenceerror
sourcegraph
testcases
pcie
menub
##dq
eventhandler
accessors
principles
608
tape
modem
628
##urance
launchwrapper
androidmanifest
1x
##afa
##bees
##least
eth0
curriculum
marshal
##awx
##lnb5
eac
fastify
##checks
tn
##ae0
##igm
##arrays
cris
##geon
603
booting
578
offenses
layouttests
##dfs
##ransport
assertionerror
specifics
conjunction
##ba0
adm
##hal
characteristics
##rial
727
linkage
22564
cov
river
##stoken
closures
601
##saw
##caa
subsequently
##once
invocations
filterchainproxy
iterative
950
tkinter
orbit
##inventory
hob
overlooked
esources
940
827
transactional
nebulous
glu
830
delimit
fse
kendo
##9zcmmvbwfpbi9qyxzh
##valu
inferred
subtitles
##dera
2m
794
521
##64e
succes
562
dbs
##obot
mainline
runtim
##irectory
r2r
openvpn
outof
histor
854
deciding
caveat
##aylor
##mand
generalized
dataframes
##ed0
coupled
clin
##gence
libsvn
##logging
datadog
secured
787
erroneous
atmos
gaussian
nokogiri
##xu
expands
##fq
##3l
saver
spac
cxx11
718
popu
##shared
icmp
##ab4
##lags
##droid
tweakcompatible
supplier
cropped
bust
##mh
##ad3
zram
americ
swed
gift
feathers
coins
857
facilitate
##valds
##uda
kos
##adic
abuse
853
webdav
eep
##efine
756
704
668
545
tornado
typestrong
##emethod
150087
3r
fontawesome
##clean
491
822
ranking
pink
roller
##urses
guzzle
bpm
cshtml
assigns
waffle
g2
dml
spoo
##pbn
##dcb
tryserver
coun
##hide
##orem
asdf
huawei
##pak
standardized
fox
nose
inaccur
##conditions
673
lambdas
operational
##gvy
foobar
dcos
meetup
torvalds
dpkg
l11
reassign
officedev
shortcode
##ricks
v1bet
8081
##aa4
artwork
635
onnx
##ed3
unsuccessful
grasp
##be4
706
##ositive
hunt
viewtopic
##outh
chapters
##ce8
716
mariadb102
triage
##fa4
ao
interview
persons
##buildoperationexecutor
inl
solo
spro
##interest
##tre
shadowsocks
programatically
2fpull
##implemented
keycloak
currenttree
propagated
appli
structural
marian
insiders
1100
arches
statistic
uncompress
appe
breakdown
rtm
untitled
##adv
##brain
##overlay
633
##padding
gaze
tran
inception
##lli
fon
##db0
##diag
937
stell
zeb
testserver
manipulating
rein
dashboards
rpl
consequences
bbb
paired
##j5
sex
##datetime
##2e0
##gf0
##ibilities
##eh
bintray
##gable
usefull
gitbook
wing
##transfer
bundling
##modeldata
dbms
912
annoyances
sia
##ce9
discrimin
konstant
overly
harv
usernames
tired
popen
##2e6
##urls
##fusion
harness
quark
##connected
nucle
##away
stre
##plain
explode
squee
exclusively
alphabetical
selectable
##stateexception
strt
ratings
tou
spinning
sniff
pkt
functionalities
sweep
triangles
bcrypt
focusing
##envs
##zwx
unamb
sigma
dcc
##cef
penalty
consumes
brill
stencil
cfr
choreographer
bail
##ca4
anticip
##j2
ltd
dac
719
bearer
chooses
997
##cursor
q7
onerror
##airs
886
852
##xmllog
brick
embar
yun
artisan
##about
nul
remainder
649
622
realloc
##isations
rdar
9600
dmit
##z3
ats
##yal
##ec6
datagridview
770
servle
##df7
ecx
inlining
##pgsql
tablerow
raven
bol
nebulouslabs
actionbar
##1920
releas
uptime
grass
xxxxx
gabriel
ciph
carri
##dan
superuser
recycle
##ctest
netlink
containerized
##transport
##weaker
726
0xff
##outines
lru
##1b4
783
ethstatus
##eventloop
deeply
i´
##arms
##efik
faulty
coreservices
octoprint
obscure
wheels
##oline
fixme
scrutin
astropy
##edal
mockup
brazil
##mongo
defaulting
##locale
##mphdme
##icl
arena
emerg
867
##nap
sysv
##a03
forking
##assoc
watched
cdash
tokenizer
executioncontext
bitwise
unexpectedly
609
curves
sensitivity
warrant
yolo
taglib
shifting
solely
##strings
##completed
csr
kc
axis2
guardian
backdrop
modpack
##aae
##w3
queried
bless
##ecc
aot
##wan
superset
##zxj2
##inct
dude
fundersclub
##ractions
##z6
##ilib
optif
mekan
##b3v
dss
678
957
##odate
joel
warehouse
2fwebpack
sku
##rok
##cpp
##ashop
cuckoo
##tty
instanceof
ddd
ecc
ansibullbot
openb
regs
jean
innov
551
##ertree
ems
qt5core
##i7
##ucet
iwl
##estatus
0x0000000
kok
##bk
##z7
ange
interactiveload
lwp
wiring
emulated
testcafe
typography
##adc
##abler
789
progressbar
##de4
728
pojo
visits
supplement
##esource
605
xbmc
trading
weighted
ascending
scalability
inconvenience
q2
psych
zx
unambiguous
##y1
##a20
leveldb
dron
patchwork
572
##isson
balanced
##ampling
##xiv
datatypes
codemirror
arise
##acom
spc
##httpclient
ribbon
##essor
backticks
##sten
3602
autow
gim
surf
clamp
x3
resync
##ca6
##andarg
camelcase
##scaller
tone
##www
kaz
##c3r
##objc
contextual
inch
##32c
predicates
##dj
preserving
icc
glf
worlds
gdi
jacob
backspace
owasp
dsum
rsc
##ensa
956
investigated
sword
##w6
multiplayer
##yaml
keyring
kali
fortunately
009
hashtable
##wift
##andargscaller
##deck
methodandargscaller
symmetric
cite
unary
837
##800
cil
kms
yii2
##stuff
libdispatch
##oupdate
##m3
boinc
electric
##accessible
predictions
transmitted
terminates
emoj
##reporter
minish
jed
abdul
kid
socks
hourly
shel
shortened
aps
##language
fence
orc
adviser
##cc1
740
definitive
##autilus
finance
considerations
838
zi
settext
##g5
appender
alam
repr
##eregistry
736
##fab
adt
fis
squir
##username
dba
##ca9
py27
pootle
dotfiles
submenu
##tasks
672
shah
##allowed
##ervic
intu
##combine
completions
umbraco
##gateway
optifine
##334
acorn
serializers
##preview
xdg
##dac
netstandard
##df2
##lelement
##z1
##providers
onedrive
##t02
disp
679
xhci
sdcard
childprocess
##mlj
##adapt
beginners
spreadsheets
##second
3aissue
920
##eresource
##public
jos
filenot
raiden
776
aggressive
##atindex
rct
##zxi
mam
award
##hol
snip
arithmeticcleanup
ignite
sight
quests
##lx
##shot
846
##pet
##microsoft
lax
jail
##artifact
884
jv
remarks
weave
##1657
##chrom
asar
dbcontext
rax
rc3
traefik
##beit
dirname
008
etag
clustered
5th
hydr
##uting
hairsp
tss
threat
##kite
##mods
##icorn
##metics
automerge
873
swip
##lq
nearby
kun
toolchains
##inson
##d04
initialised
778
geth
jf
tender
##idle
ora
libpng
categorical
##ief
liu
lldb
##0n
python36
##z4
##j8
##shar
766
recaptcha
lobby
##aaaaaaaaaaaaaaaaaaaaaaaaaaaaaaaa
lessons
mhz
##vic
##injector
chaos
decompose
917
preg
laur
##fe6
##hai
sunny
##dd7
pst
unnamed
##cdn
xterm
vy
858
##estro
##lazy
##imd
##express
##p6
fiddler
##warn
viewdidload
provisioner
dragged
804
708
lear
753
hooked
bion
##tables
nvim
unfinished
##pag
mah
880
devdependencies
appid
generalize
##pixel
984
london
gil
bpf
575
handl
qstring
dealt
kk
pee
recur
100000
chisel
keen
thes
derivative
libn
##cret
##exper
apim
##lot
##════════════════
##quer
libf
##started
travisci
20c
870
##dd0
mip
libexec
difficulties
revi
tends
786
##aproject
enclosing
##p7
##outof
legitimate
depot
##sx
indefinitely
drv
portability
idempot
pgp
rk
897
heatmap
##gtk
busybox
tent
apoll
erik
zc
899
##s9
nightmare
elease
vincent
minishift
tumblr
shards
episodes
pier
xfce
holes
inheriting
knockout
17134
programdata
commitlint
fos
##g7
##m6
##j3
##a3a
hassle
##refixer
0x9
658
662
coinc
645
designated
##ed2
##osis
##allback
##aggreg
fastq
abilities
idiomatic
##virtual
##adays
exif
##w9
caffe2
boots
clientid
autojs
591
848
eve
insolar
##vzgv
##ad4
anaconda2
##rendering
##bq
anthon
lightbox
└─
wes
meson
##handlers
publications
deployer
jdt
bcb
cec
##ks5q
##eq
flushing
mobx
interfere
##configured
##87b
##ragon
983
vent
##unction
mysite
##iated
iphoneos
##db6
##itsu
demonstration
xxxxxxx
emits
799
##ijl
##nets
died
##configur
disappoint
diet
##uits
bond
exposure
lion
##cance
##ks5t
##stalk
wasted
behaving
##generic
mac80211
leo
isset
bashrc
0x13
fitness
userdata
##stub
##usage
##orrect
visionmedia
##pository
732
##ab6
ced
##eye
##ca7
float64
appdelegate
##stud
982
stereo
643
brilliant
##gaz
688
activating
molecule
unclaiming
urlclassloader
lz4
815
##elp
digitalo
nathan
##termin
0x11
964
getinstance
packing
bounties
adaf
##vil
##explorer
ripple
submits
##bukkit
##idget
##rior
dvd
##intosh
coremod
geron
weld
screencast
strangely
rounds
##rise
observing
##cur
bast
sufficiently
labor
clues
explos
male
##db9
dbo
idk
924
914
wilson
##da2
evolve
scrutinizer
textual
prerelease
facade
##qie
##listview
donation
myproject
##idis
bitrate
advised
autobuild
shipp
780
collective
flashing
ldf
mountain
enderio
bigint
resnet
joyst
847
648
folding
##a2f
byt
government
unmount
winter
prnt
##nament
##df0
807
thaumcraft
##scene
##macs
ebx
keyerror
wolf
raft
685
##oreg
##anks
sequentially
954
kor
satellite
wu
dz
##a08
##aday
1600
##chedule
##ercis
inspiration
guideline
##andro
decryption
abstractbeanfactory
774
##stein
##awk
googlers
##owner
prestashop
##adec
httprequest
##stache
denom
webcam
opc
752
##rue
haxe
intermittent
w64
##lw
##flush
##aeb
quarter
##cripts
contrad
bnd
##cheme
##1b7
##obo
cohort
cdk
stride
commited
testscanxmllog
primefaces
discrep
hda
newsletter
beta1
##evalu
oliver
knight
lease
eeprom
renderex
jacoco
fing
889
##speed
836
vulcan
c00
shuff
quadr
##hare
##omething
actionview
shm
ech
##dwx
##izr
##jag
v201
j2
casc
synchronously
ehcache
##f16
killer
##docker
665
decks
##formats
##e02
subscript
##incre
675
india
proton
1k
statist
##g3
##vault
onboarding
ssa
mojave
##oked
##flight
##andr
podcast
listings
concent
##vcmu
varies
##zed
##eba
sonoff
##mad
##aa6
##encoded
conv2d
##arrow
reindex
2s
illegalstateexception
##i8
##lie
libcore
##ilon
f12
bounce
##erservice
dept
medical
lud
##calcul
eri
##spring
arises
vmdb
jsonobject
georgi
bokeh
996
##vie
renderexercis
renderexercisetask
w2
whitespaces
##ce7
##bab
ocs
##db3
cis
##etails
keepalive
##had
##cost
incompatibility
quirks
vign
##db4
##bias
goblin
nowadays
switcher
987
##registration
##ad8
gcloud
##1bf
pyinstaller
specialization
953
philoso
presenter
chrono
stringbuilder
##bb0
waterm
defaultbuildoperationexecutor
##storages
682
##2028
thanx
zim
##cc4
informed
tainted
drift
web3
christopher
precompiled
systemctl
getname
##izip
accent
##migr
associative
javadocs
qp
fern
alphabetically
passphrase
##dgvz
estimator
638
##lam
getcurrent
##56c
##edd
##when
##ca2
runtimes
##jet
##w8
663
qm
templated
967
operates
##steams
rocksdb
##ccc
subroutine
oca
vcxproj
##ipay
##tls
lim
##w2
addevent
huh
telerik
##plyr
backgrounds
catches
##90e
##utations
leftover
drush
##berto
followers
saturday
xmld
wireframe
writeback
modals
interfer
casing
rim
lux
ucs
##oslav
##cipher
##dc1
bbox
##zoom
sony
stun
halt
##acb
getuser
927
awful
tempt
simulated
orchest
cact
10px
##versions
##exceptions
894
##nlp
vega
##ldap
aelf
hous
##elink
exponential
883
optimisation
##scripts
milestones
stations
##mls
##gry
adafruit
##orient
##k7
##af4
mary
##rowser
masking
glow
##asso
forwards
distutils
jen
practically
##r7
county
ebwiki
##earon
sessionid
##annon
confir
fixer
##zens
encapsulate
##consider
recommends
##omir
wy
##2f9
translates
nei
##pred
##be6
##91d
spinlock
##fd7
gef
##x16
samuel
favorites
749
##ematic
kodak
editorconfig
##zxjzl
hawk
918
rigid
scoping
##cmv
##reports
ocp
##dam
monotone
642
##elly
1111
notably
breadcrumbs
float32
gaearon
lh
##g8
directorywatcher
##fs2
qi
##encent
##defaults
catkin
reactivex
1f4
displayname
rink
##kos
##stick
mcc
makeroid
reflects
nist
automake
flame
querystring
segue
##crat
linalg
hlt
submitter
tdep
bson
conditionals
##conditionally
geronimo
functor
memset
##hdglvb
lexical
##zgo
##opts
747
conserv
##tn
asan
##16c
pug
uiviewcontroller
##jour
destruction
httponly
jdk1
##dparty
djangoproject
##isharp
trainer
gladly
hong
arang
subdirectories
paying
worthwhile
partitioning
##fied
intuition
581
explanatory
##rlci
##52f
##yw5
saga
vibr
779
clim
759
531
6000
q1
875
holiday
committee
triplea
odejs
##fe4
scoring
##a07
##una
859
##inent
requirejs
retina
sne
libren
##f04
##alan
874
pathname
xorg
javascripts
##chedul
fleet
930
##black
##mond
##imedia
plugged
xtensa
bdist
733
944
e0602
matchers
##liter
738
outs
##chip
bst
qualifier
##include
ordinal
boring
966
passt
##ez
distances
mocked
##asa
vacation
cdc
dht
##j9
wys
learner
obtaining
issuer
livemode
##wnd
dlib
##adf
apostro
civicrm
juan
interpreting
coloring
ros2
##abbix
##cb0
##prim
##oot
baseurl
947
##estry
initializes
parquet
##5nbw
shade
burst
filetype
##feb
zebra
tomas
887
rent
antonio
bz2
scp
xdebug
829
974
rowspan
828
viewlog
sandcastle
661
qe
##da6
sag
toolset
pla
sprintf
resubmit
popups
sds
##irq
936
ply
##df5
acquired
876
shifts
v4l2
##cx
##rical
ecr
loglevel
philipp
##da4
installers
bla
##decimal
ord
uncertain
freetype
mdss
upnp
##updater
routers
convey
shaded
dong
denial
sdl2
unintended
dusan
##alias
nsp
maestro
##peration
##c1f
residual
##omorph
retrieves
##elle
deem
##atics
##ben
bounded
##ен
callsite
purs
##agedmodeldata
##aa3
renderers
numbered
divis
atleast
##imeter
ppt
america
synonym
bone
uicol
olm
obst
##defined
representations
intensive
797
0x30
customizable
frequencies
##ee0
cmdlet
sysctl
xbox
ado
unconditionally
convol
experiences
##blob
##tap
##mlin
##abug
presents
computations
agra
l12
modulo
amplify
##external
spamm
overlaps
performant
craftbukkit
##market
##eroot
c10
essence
oz
##yh
##t01
##fb0
##2e4
reconstruct
assertor
##fc4
sparql
recipients
##month
brc
dwight
##devices
dhave
##ae4
ooo
993
##none
##inters
##training
ek
765
3rdparty
##ce3
contour
##ca8
adequ
910
flying
postinstall
log4
##be7
asyncio
##scripten
775
bss
##blocking
elemental
##etools
reordering
##refs
setvalue
httpurlconnection
compromise
l13
20red
##fe7
##zxiu
839
cursors
826
916
watson
##af6
##ransform
##zuko
omp
anom
doprivileged
deprecations
remy
wayland
jackett
017
cront
aq
reloads
metadat
##ff6
##flux
692
##cd9
emitting
netdata
4200
overwrites
571
mud
pys
unmanaged
exportimport
beautify
reven
befor
##ks5r
ij
##transformer
##locator
##orum
gss
waitfor
atoms
buildroot
raj
##iffs
##1b6
##rin
funcs
diagonal
necess
##addresses
webassembly
communications
golden
delet
715
renewal
permalink
oscar
refreshes
lyn
disposed
##olia
##lj
fopen
speakers
##c04
sln
uint64
immers
libqt
pdt
934
lxd
##ab9
prg
schedules
##wig
elementary
mutations
##via
##callable
kd
##allery
goss
jens
cozy
##forn
titled
sponsor
1980
whoever
coupon
##gee
gettime
importlib
806
declares
##e03
walls
albeit
latt
liberty
keymap
appimage
##azure
##junit
1em
cinnam
unreli
##db8
##ovo
##be9
midnight
cinder
af2
##keeping
##irc
##oself
spack
##1024
deviation
##z5
sucks
handlemessage
890
##permissions
connectionpool
pushpin
##a74
intents
deselect
762
zabbix
##decor
##geometry
rear
pont
##nll
createt
698
2gb
autoprefixer
vs2015
isis
squirrel
##ptypes
913
julian
classify
rtsp
gyazo
pystache
oldest
##aed
objectid
##anges
mps
collation
indirectly
##odata
##카
pagesize
##fcd
##2m
formatters
inconsistencies
securityadvis
##ff3
##ertools
976
accesscontroller
##vex
cocos2d
ridicul
bsp
##gged
742
uws
altering
##dos
gpi
moo
railcraft
##dim
table1
20to
emscripten
929
heuristic
vcpkg
distros
##inated
clay
##older
maci
coefficients
20button
##f06
##typeid
prinfo
##wheel
##ec8
scrub
geot
##servers
##coverage
1048
graylog
##c3d
msteams
##ishing
nine
849
0x14
##aspencer
##19f
castle
shots
parallelism
##ynos
dwightaspencer
machinery
flex4
summon
##poll
##dd4
gradlew
rans
dunno
colspan
##responsive
##arguments
moth
yas
excludes
1049
##uggest
utilization
mpd
##shi
easter
##interpreter
sums
cartodb
owns
998
horizon
dplyr
creators
##████████
accessory
##p5
customizing
denzuko
hil
stray
forgive
eventmanager
##de6
testament
##cfg
backslashes
##ifty
hotkey
ata
tournament
eure
##t04
eug
oidc
##ff4
istanbuljs
presenting
##blogs
resides
rose
enclosed
##cj
expense
yaw
american
librenms
unwrap
758
itext
##allocation
##controllers
##lmphdme
allen
##visual
pcb
opportun
##coding
##dc6
##crypt
868
userinfo
##ff8
##templates
burden
##hao
788
##eding
##aa7
oj
borg
8a80808
genu
valued
noun
##mid
heal
tapping
tabbar
splice
masters
administrative
896fix
textinput
##de9
fedor
sling
aggregator
##ab3
chalk
mario
asus
##ython
postback
cele
##xpress
workstation
##pga
##ab8
##period
greedy
##esth
smartphone
pipenv
##1b8
objections
bors
slope
##shadow
nst
##yv
##ekhar
##ec7
philip
userland
##1b9
reducers
libreoffice
koa
alen
##orlib
825
vma
progressive
edt
ie7
ecma
##ff7
##dock
chooser
##predict
##df6
##edown
famil
##noon
gens
743
2c0
analyse
##vename
##af8
##imeout
##usions
##360
##week
kf
pps
tabl
libz
separators
843
strlen
##acf
##robot
##tg
988
inclined
alphan
rc4
##alm
transferring
slicing
##constructoraccessorimpl
phets
0xc04
nonetype
##3v
##da1
##ztar
##2d4
loan
##irl
##sservice
##adm
014
audi
ensor
978
763
crafted
651
561
1010
omnisharp
baud
framelayout
qt4
mys
##de7
##mpz
##be8
phetsims
shippable
##ec9
##person
##rons
##´s
stead
dollar
redefine
checky
##ivr
##bb4
y2
863
skim
fsl
938
getdata
jinja2
arrives
##k6
bisect
rook
yandex
##54e
tiled
jenkinsci
scons
hexadec
##exthandler
joystick
##missing
##57e
##ania
l14
##t0
##rigger
rav
##stripe
falcon
##15f
deflate
iphonesimulator
##oulos
tensors
gunztar
##reloaded
gunztarperm
##pts
toplevel
0crat
rick
uniqueness
##ijlstra
##cb6
grail
##family
dwarf
joss
executions
vhd
umbre
utilizing
0010
##founderror
timeseries
952
finalized
##linear
##kat
zijlstra
20be
##clay
urb
wss
##yy3pnvwwk3tul52hs4dfvrexg43vmvbw63lnmvxhjktdn5ww2zloorpwszgo
992
735
bip
##initializer
volunteer
orderby
##ef0
##50cw
iterates
ei
taps
879
##ransl
gtx
sharding
796
steph
knob
standardize
netcoreapp
drew
minefactory
kab
warden
decorated
926
patchset
##f13
##andre
##ba6
meetings
##q9
sqlfiddle
octave
tbh
##comments
##deep
gaim
##idity
experts
##bp
muse
##fest
checkyoself
##it2
rainbow
##icont
chicken
##ac7
welcom
##ofire
##iller
##pluginmanager
##joint
##23d
##16e
jones
refcount
elf32
booleans
dropdowns
##odium
20of
retention
predicted
##cc2
pillow
tall
##pder
graphing
##bounds
vime
savings
##ignature
##cards
##masq
http11
695
1400
struts2
dow
maximize
miro
orb
##z8
ocl
istioctl
##igi
##ff9
omg
##2g
introspection
gains
freezing
popping
893
hind
##ba4
##cca
##depth
fgp
relocation
##fc8
filesystems
mira
dna
holidays
##aaf
enrich
##aa9
certification
medusa
##csv
##ceb
##omen
##fc9
##sar
intact
intrinsics
##logo
801
##nat
px4
##voice
##a3d
932
attrib
##a30
##c3c
user1
playlists
##umped
albums
851
saas
##da7
cinnamon
nord
eight
beta2
gfortran
##fc3
wasting
##matic
communities
capy
heights
##zech
configmap
keepass
##iph
imaging
afternoon
##eo
dated
ffffffff811
hapijs
whis
uitext
wipe
achieving
##3333
syntactic
##ontology
francisco
arp
neighborhood
##grou
##ad6
##ed1
rise
restructured
displayclass
##webs
etl
vsc
scrollbars
libgl
cray
embedd
0002
##2020
lng
##1bc
sri
dise
pyram
##odule
ebs
fossasia
delimiters
captain
sensu
972
##iliary
iframes
3x
##cfb
ctypes
singularity
##ac8
openssh
cvename
##beb
getstring
898
asn1
##db7
cancellationtoken
ejs
##lob
phrases
fax
academic
nautilus
unreliable
0x55
##increment
dnsmasq
sticking
##imon
ross
uglifyjs2
ogre
healthy
sits
##gal
##gxl
jsonp
##ecoder
magnet
qty
gajus
##utility
transit
fool
##constraint
cloudformation
kulsh
tolist
brianch
##notify
869
##official
aha
vital
##createuserainitabact3
##credentials
##spacing
933
##qualified
iscsi
##dc7
faults
rootfs
##thgen
mobil
##learning
cte
appointment
##documents
969
railties
arbitr
outing
##d08
wear
945
631
##oolkit
demonstrating
##ispatch
qcom
bah
cumulative
##ounters
noclass
repetition
##d01
dashes
865
##ivers
mscorlib
##coordinator
phi
mason
unresponsive
regexes
##maw
##da8
##ac6
runtimeerror
##a09
environmental
regress
705
##efs
zulip
##5678
##ffc
##scal
##extractor
##answer
waypoint
hexadecimal
##rusted
estimates
afford
##bb6
file1
refuse
977
##xtension
##gert
pygame
meaningless
gunicorn
workbox
volum
##enz
773
tic
confirms
ctr
##series
multise
constexpr
eclips
spit
capybara
##arts
evernote
appends
pwa
##ba8
memcache
useragent
maget
innerloop
##pderpder
wchar
##ynth
##tq
tee
##balancer
beer
701
vor
abstractions
2fa
mojang
##uuid
microsoftgraph
maintains
degrad
individuals
kulshekhar
##bdd
hhvm
##r6
bibizip
geonode
862
5m
mother
##green
mishoo
backports
russell
tbd
##fc6
xcodeproj
gulpfile
##af9
lazily
##chk
##19a
##hier
thereby
rogue
miller
wms
##a02
##loit
statusbar
mechanics
aix
australia
gotcha
oppia
##fixed
##members
##argets
835
##zpy2
##de8
##dae
recap
uno
##f6f
##amd
##cae
##ad7
httpcontext
cloudera
##ca5
sos
assoc
lwj
##fram
attribution
ctype
##ffb
synch
drools
##52e
841
rubies
##dataset
aborting
veter
kenn
relaxed
ijkmedia
##queues
magically
ssis
##b2rl
##18b
##monkey
verifiable
throwforn
throwfornonsuccess
##g6
facilities
##random
exynos
occasional
wis
argu
tlb
943
##iuse
usercontrol
sps
##usecase
986
##ptest
testament3
##anth
reword
sophist
##chars
evaluator
barely
branding
college
pbi
glpi
##required
insist
opus
989
7000
##harper
671
revamp
963
classnotfoundexception
overflows
20and
ofc
lom
thy
928
flushed
##k8
949
##quad
8888
gathering
##entities
oci
##fe9
appkit
inclusive
020
idb
##1000
##ftest
##ae6
##don
878
9200
621
##redirect
discouraged
nagios
##enew
researching
8192
##de5
demonstrated
rtos
##resourc
##tracking
cdata
jcr
##datal
##ante
kits
u0000
##institute
##q29
##ec4
caly
vcl
lev
aiohttp
##authenticated
downgrading
dil
cuts
##segment
##vcmc
gso
opcodes
minimally
mnist
genre
3s
gmp
968
kinetic
contrary
iconv
rephr
##cf8
servlethandler
tencent
leopard
939
marathon
##amount
swedish
christmas
alliance
c3jjl2
##da9
##ed4
coupling
##olab
##h8
cares
##anas
##foo
qd
accumulo
##asd
##de3
##m8
histograms
##alignment
##listeners
slaves
##igs
svm
xiaomi
x0
auton
quicks
##ibase
peripheral
redundancy
heres
cds
imageio
christoph
jord
agile
##aa8
906
indexeddb
gcode
msgpack
errored
lecture
##ab5
##iqu
concourse
sheb
pca
squad
coerc
tut
securityadvisories
balloon
ensorflow
theming
##choo
aswell
##esp
atp
recreating
wand
noclassdeff
##dfd
##vier
minefactoryreloaded
unreadable
##tcg9
allocates
wildcards
##f07
##m7
oversight
##abcdefghijklmnopqrstuvwxyz
##dofilter
mastodon
821
##2e8
##af7
885
##operationexception
imprec
##c3b
##n2
##zones
glm
785
wmcore
##isam
attract
##cea
kjs
lbry
##lik
trajectory
transforming
iro
studies
wechat
cdi
##entioned
professor
sasl
linuxbrew
tac
##jos
neuro
stk
##appropri
rdbms
interle
##fe8
noclassdeffound
mars
extracts
anders
arcgis
##x64
initwith
caniuse
##collective
##cbc
##iobutton
testdata
000000000
revealed
##notifications
##aa5
##aea
he0
##rek
stackdriver
handful
crlf
922
parseint
rcpp
magetwo
##ae7
wondered
repeater
adoption
surprisingly
purchased
##ctx
truncation
842
##hdg
cyclic
ecmascript
mmu
##d67
district
##material
netfilter
advertising
githubassets
binutils
fpu
javascriptcore
value1
##df8
##f32
##d09
interpolate
kata
cope
##afb
libxml2
v11
##plicate
##vity
datash
preceded
chromeos
##rite
ldflags
##5w
failover
2fin
precommit
csc
novice
##andotcom
furn
##hun
##2011
outlet
975
shells
##construction
brianchandotcom
##pend
##lon
nail
mgr
jes
income
##datab
##a7f
##handlertest
czech
asym
##esize
prj
encapsulation
microservices
##ski
##1w
consequently
adopted
carp
pairing
##testrule
genuine
##scy9
dozen
641
syscalls
boy
observables
##hosted
##channelread
serde
synthetic
731
015
netdef
ifnull
verifier
hci
m68k
##a67
noneth
ness
numa
##irectional
los
invokemethod
announcements
covari
y1
##kins
beg
995
admitted
##asc
objs
mapp
782
aven
##sov
auxiliary
luckily
scyll
##ecbag
##eb0
charging
##analytics
restaurant
##embers
appcenter
##outing
jab
spree
paged
##dbg
c3jjl2nvb
divider
ndarray
##classname
973
##levent
##bio
sata
ssp
##ahi
fhandler
fragile
toggles
pere
##a05
fhir
##walker
lwjgl
946
contenttype
blackberry
##ac3
hill
bx
meters
internaldofilter
809
genesis
mule
979
libop
roi
yoast
aforem
chown
daem
flatpak
##hit
##enote
remembered
##fra
##capabilities
errata
##anga
systemjs
##pow
##byname
jake
##advert
##ecb
##52d
carried
##ahahahah
isvalid
##0s
##lighter
labeling
stake
##ftime
openbsd
wishes
##columns
0600
arrived
##16b
wox
relaunch
##ril
mirrored
karaf
##fb4
rewards
895
ein
walker
nonetheless
polynomials
##ce5
escal
s5
##nson
facets
installable
capitan
calypso
throttling
contro
spawns
greek
##itech
ters
simulations
kest
lucas
encounters
##abox
acknowled
c11
mull
permutations
nullptr
helix
##referenceexception
##ketest
##oll
904
##87f
zy
mkv
labelled
772
##finish
aforementioned
##mless
pll
hx
##chimp
0xc8
bugreport
##enames
approximate
##eventargs
poison
##ee6
mcu
extensible
previews
##lmpz
crontab
retail
openn
tokenize
##google
kap
##e07
corem
tomm
zanata
##cf4
x264
##isallowabact
hypervisor
amended
##him
##ubscrib
kp
golem
refactors
considers
peepee
datum
##tags
meh
##bok
##udhm
restructuring
##atime
emphas
jspm
##moved
understands
kaspar
##f01
gestures
##idoctor
##cc7
##sters
virtualenvs
datan
0rc
ich
751
##t03
dispatching
instructor
rfcs
##antec
cog
artificial
##etoken
gotta
##2f7
miscell
academy
##enity
backpack
##f02
pyenv
bitmaps
shebang
pry
955
10s
zal
destructuring
popped
aether
##recogn
##idon
digitalocean
985
eventemitter
brandon
soci
cppreference
##pecs
remap
uil
polls
gv
dimitri
hpcc
cet
outputted
rxjava
writers
##f08
##c24
##ynamics
unreal
nih
decoupl
681
##verify
drwxr
wunused
##four
67d
redistribut
##done
fram
testnet
esri
spacemacs
carl
##buildaction
stargaz
##marker
truffle
statsmodels
882
##c08
spots
##esg
##fa6
##yun
##iso
aos
conj
702
ruleset
frost
##f03
noclassdeffounderror
meshes
1h
##esponse
925
projectroot
##fc7
tsv
wysiw
##keleton
resharper
baby
relu
scanf
013
792
fingers
##country
##cc6
w3m
undertow
##fv
##alib
##character
plots2
##d06
pyup
##bd2
##starter
845
butter
##fd4
##mqtt
korean
1900
census
##dbb
turk
epochs
##racing
textboxes
metaclass
grin
irqs
831
openc
whl
cosmetics
punch
claimed
##daemon
##2u
##dd8
##ouv
defe
ljava
##axr
bootstrapping
vip
725
##iao
##dea
##1bb
##b3d
artifactory
##prior
gust
tesla
##oshi
vimeo
clobber
buildkite
##bef
exercism
##2111
subview
inaccurate
6495
baller
##eb4
subcommand
##15b
##ummer
fundamentally
cpw
forgetting
npgsql
yar
##obu
721
##dc8
stealth
##workspace
vs2017
gcd
##quality
consisting
fuj
luk
refman
rex
##ba7
prov
##90c
##iams
##6666
##override
##c01
sourcemap
spo
20140
fees
photon
wmi
##automation
whatwg
##ab2
electronic
##ed6
1252
##ан
terribly
mpc
##5n
##19e
##dv
travi
##ige
octokit
baid
emotion
slate
mohamed
indigo
grabs
refresher
907
bem
quat
userguide
nuk
relval
##fc5
autofill
##etimes
suppressed
##rents
py37
##visibility
##ad9
spacy
multithreading
z3
xcb
##d07
##year
inappropri
pyspark
insane
ranks
catalogue
##insert
gio
leaderboard
scholar
geoserver
toggled
nsc
##dfe
nonsense
workitem
trending
##ethread
e501
havent
sqs
##kova
##00e
apid
cif
nup
emergency
##destroy
hoped
gym
vnc
basename
##bc5
##mel
##heap
##1z
silverstripe
regex101
##ainer
793
##asters
coc
##dd3
pyramid
bans
sprockets
##testcase
##ed9
usgs
##ancies
##hrough
libtorrent
##ashi
underfs
##sf
mistakenly
dbe
facilitating
tif
proofs
808
##f09
deactivated
chaijs
##aspers
paginate
##fb7
##10b
##1b3
1004
##bb8
##agicagicagicagic
characteristic
umbrella
iz
unplug
subfolders
##ocracy
pris
sophisticated
ioann
20000
minimized
##0y
##approved
stitch
skew
##algorith
harmless
unfold
eliminates
##cd4
configurator
##24b
lsb
frac
##b07
malware
##final
##taskexecuter
dozens
preventdefault
hart
##fonts
965
##cd6
##bae
mitch
##apro
rel14
##da5
races
0300
##cb7
##phot
0x18
fds
semicolons
##1934
##64f
nab
acm
ephemer
sliders
##okens
##seek
castles
##units
extjs
computes
##ff2
jj
dyno
##urescript
##hum
sul
##ec8d
adrian
ncurses
citizen
searchable
##ials
##inations
##owski
pgsql
##velte
##deg
corrects
21474
deriveddata
critic
##be5
##f8b88c
##hile
dfsfilter
addeventlistener
##10e
aesth
##measure
mitigate
##fps
##zor
798
guessed
##4l
abcs
steel
eventcontextimpl
withdraw
hatch
##2008
gith
##encrypted
5t
intelligence
dagger
samp
##embedded
##29f
coyote
grat
##traces
##aa2
##pert
cfrun
noisy
hearing
n2
##dd6
sth
##2e3
anthony
ticker
bionic
##brand
##nry
##zes
jei
u1
##14e
##erman
##53e
##enerator
multithreaded
pio
##inner
codeanalysis
webp
##bb5
pq
##mvz
##86b
pip3
##loo
##shader
okhttp3
polit
##begin
##dro
##graf
statistical
asciidoctor
v12
##dba
belonging
##de2
styleguide
portions
strace
##illing
##etwork
magical
daw
##paint
958
multimc
##cookie
weibo
uncompressed
linaro
setinterval
macintosh
##erto
##cf9
python37
##fb6
alamofire
##aram
poetry
##ggle
##untime
capitalization
##20a
##aked
##osa
demux
verbs
zolt
tmc
##uites
cts
rocketchat
935
poco
bil
pup
mypy
panda
mimetype
phpstorm
greatest
zz
rewriter
##jywx
##pod
xgboost
##ortype
kasparov
##uzw50
mst
##physics
zs
traced
qunit
##ff5
materialize
suck
bac
symptoms
enchant
##15e
perimeter
fcm
##cious
##b08
##accessibility
dropdownlist
identityserver
polymorphism
1987
##accounts
approvals
criterion
tzj
ahmed
ldquo
jsr
trid
kasandbox
##d03
##astream
##double
reliability
10k
ip6
##n7
nemo
nsarray
terminals
bbc
##ee7
761
supervis
nem
directx
##82d
8c30
pickup
ultra
##aval
##resume
stacking
exploration
##bd4
microservice
##57b
reconsider
tabular
016
artem
manuel
##tcg9uzw50
suspected
##53b
##primary
intensity
gazebo
cue
revoke
kale
talent
fullname
sanitizer
yose
approximation
##article
requestid
instabug
##onyms
##fb8
##qus
contours
queryset
scaffolding
##fa7
complaints
##agu
gameobject
449e
faraday
mpu
##wide
##htext
0x50
dmitry
tzjames
942
mortbay
ain
##daf
quasar
glx
drug
watermark
##website
##12b
v8a
##cb4
dsi
##dfb
##ique
##ер
##oxu
pax
terminator
prb
unes
##ba9
921
radix
##requestfilter
12345
tabbed
##17b
##border
unsatis
reside
##efb
##0z
##0003
##avo
##ee4
##ftools
govuk
##gorg
addin
clones
##3rl
##ffa
shellcheck
##vdx
objectivecb
hem
##a657
beware
advoc
##10c
starters
8e8b
##cellular
##ed8
##ce2
wif
##paget
##acore
##1s
##annel
webclient
v1beta1
##operations
uwsgi
arangodb
##gvz
cookbooks
##x32
##e06
nokia
leoz
0x60
##59e
##gang
postal
892
mouseover
948
##df3
kgsl
##u9
##lh
##db5
##ambur
kmem
##jdk
##omed
##abberd
sqlexception
##b04
##ecf
microm
wysiwyg
miscellaneous
listens
1023
872
woff
lid
fighting
##alcon
ntfs
kai
##dc3
homes
menubar
oil
1050
aurora
trimmed
mapview
emer
prave
1142
eureka
nou
##ad2
##okes
##d30
##ae8
pypy
##00b
videojs
##streams
theoretical
beats
l16
datacontext
962
lighter
##decode
respected
kumar
cloudapp
##oregistry
alarms
pinterest
arduino15
predictable
pec
blaze
##pler
rdp
hazard
##fcb
vx
##arre
france
colleague
filesize
collab
##54b
prototyp
##ac2
nls
##97b
caddy
##agues
hijack
fileupload
##udhj
conceptually
expandable
presto
joda
rts
##lengthlength
##32b
##friend
rdquo
##bb7
svelte
spoon
sess
joo
##handling
thankyou
passwd
drones
##cil
##db1
dic
##c06
##hjkasdfkjhasdfhjkasdfkjhasdfhjkasdfkjhasdfhjkasdfkjhasdf
basket
jac
alien
invalidated
cld
##ike
##1b5
scout
##dbd
##andbox2
symantec
standardcontext
mailchimp
opbuildstorages
opbuildstoragesandbox2
berlin
##kip
##fe3
mekanism
##be3
lvl
miles
alo
abcdefghijklmnopqrstuvwxyz
acf
bild
##atomic
##fd6
himself
zzz
##2rz
##ae9
##itative
##arith
##slav
##eeeeeeeeeeeeeeeeeeeeeeeeeeeeeeee
arbitrarily
sinc
##20f
##epend
##alla
getelements
033
##bat
postgresql10
nullreferenceexception
menuitem
perms
appname
##och
tabindex
ov
reconfigure
ugh
celebr
violates
##2e9
lookahead
881
unaligned
##20e
snappy
fif
##orexception
coroutine
disco
htc
sudden
hyperledger
vamp
##cow
##estats
walkthrough
##hil
piwik
##pars
logon
xwiki
dungeon
pierre
dicom
sdp
1080p
forc
rg3
##cc8
lattice
##r8
908
##aabag
georg
##ов
##strom
##dd9
unpredict
##intel
retroarch
##exe
elementor
##orious
##12e
kestrel
##87e
lto
sysroot
kj
playbooks
faker
##84e
institution
##omq
confuses
tact
##52b
microphone
bouncy
##c02
##c03
autoplay
hardcoding
shake
radiobutton
ejabberd
cham
oasis
cest
##metadat
immersive
stargazers
enforcing
verifies
##threads
maven2
##14c
691
tts
contest
##igma
kicked
vmouseload
nomad
semantically
##born
networkmanager
cherrypick
##namespace
httpconnection
l17
##ptype
i32
##gtnl
##ingleton
jitter
magit
escapes
cartesian
originated
sdf
##fc2
redeploy
zoomed
kil
##fd8
podfile
##eb7
waited
jqgrid
sdata
##liers
##cf6
era
seat
##29y
##park
8443
decreasing
##23e
craig
##1b2
lingu
laszlo
radare
deepcode
##instanc
extensively
##1t
##ekins
##af3
##editable
##outofbound
941
ssid
astro
##ainter
eliminating
##ersand
kyle
##2963
aft
descendant
##dead
##cgi
##bla
multiplier
gnue
freer
##bgl
##ef6
##bz
##ecl
moc
##67af0
johannes
quic
##irs
##a64
value2
##solutions
argc
##locked
##vor
pseudocode
##javascript
analyses
animals
gltf
cooper
frustrated
##c2b
##without
##fd5
cents
10240
zach
##2f4
##conflict
zoltan
##a37
fy
##viewed
ditch
##iforce
multiselect
ad334
##14b
gnus
libv
##equality
4ff67af0
##ec8d88c
ad334ec8d88c
pedro
ellipsis
##c07
netdev
sse2
ffffffff81
gles
##ec5
entitymanager
rage
871
awhile
##erevent
metasfresh
##afc
medias
utter
matthewd
melo
##23c
##cf7
cppcheck
gulpjs
##ein
##o7
belie
interoper
proptypes
##symbol
##iar
forkjoin
registrations
##1212
##crypto
vuex
reinvent
promoted
kud
caution
##2e5
protector
##23b
ostream
##24e
autoscaling
examining
boto
parking
heck
##graphic
medic
pythonpath
##eselect
##88b
imperson
nuke
##5h
twenty
loud
##due
##oids
##etics
##bak
14t22
cir
##desktop
wpa
chk
961
inquir
##f6e
##aw50
riscv
##20b
##oshop
lapack
##ipes
hambur
##hierarchy
##acd
startdate
markus
##y3
arguably
lord
probing
certbot
substantial
##ddd
##yslog
virtualization
opportunities
attackers
##abd
horse
lpc
reactions
asn
##ac1
##crash
##cc5
##ouched
lake
##reading
austin
stumped
mustache
glfw
risks
000z
framer
impacts
docfx
##be2
##9x
runtest
##kers
##4x
##ccb
##2f3
##agged
##96f
geforce
typeahead
##fef
gett
##ereport
bullets
serialport
u32
##dexecution
yetiforce
##gradient
##ef7
##ad5
tendermint
concatenating
##etracker
writeline
unityengine
##dfa
##eeb
##variables
##soup
lms
##1600
admob
overrun
uncom
rackspace
##ffd
vat
psql
ci1
abcsize
venue
cmds
##bc4
fiction
discontin
##luent
6495ed
erc
unbind
multimedia
pile
##83d
psyco
blazor
pyd
keystro
iio
invalidation
##coded
909
cloudbees
jndi
easylist
jsdel
##business
xi
suppression
##collector
msgstr
expressjs
databas
##50b
mentor
##delement
##llint
daemons
vertx
795
##10d
devexpress
servicem
winston
hf
1434
jsdelivr
##requests
##boxes
##records
lily
metamask
##de1
gcr
##buck
supplying
ukt
805
##ativ
programme
miroslav
##weg
crowdin
derivatives
##fa9
##ba5
gifs
zoxu
##quals
pbi2rz
wwwroot
##f9b
outofmemory
toggl
##quant
##allax
##elib
replacements
nec
relocate
##y7
arte
##machines
valign
redstone
rah
##19b
enemies
bree
##pause
##57f
grain
##acer
cruft
b77
checksums
avalon
bibtex
sdm
granularity
##15c
osx10
autotools
##zy2fs
##edalus
##etector
pong
411124
##ddc
trackers
##e04
kaf
sscce
##placed
ciphers
asciidoc
distort
##dc2
##dbf
complaint
##people
##cb8
espresso
1gb
pontoon
conservative
781
##warns
##hashmap
solidity
##tip
##trip
paolo
rop
governor
announced
tet
asserte
01x
txn
myisam
##chicken
nioeventloop
theta
protectiondomain
861
1002
collapsing
recognise
##qiaaa
interim
##d05
visualizer
nip
##rett
advisory
ams
vfp
99x
1mb
##ichi
##emonic
##f6d
##eventhandler
ptrace
phpdoc
pex
kinect
admittedly
georgios
cifs
##6x
##pta
2522
subclassing
##persistence
##gam
##computers
deletions
##cf3
##outofboundsexception
##flash
challenging
##aar
##segv
##peech
physically
trips
afric
satisfies
arxiv
##yf
inital
dispatched
constit
replied
##von
cfd
bamboo
dgraph
zor
staying
##payment
35m
helpersload
##delet
feeding
##fetcher
##abf
##d02
##83f
##3n0
gin
publishes
aiming
5x
##ac5
hah
##kyxr
##oses
germany
gamed
accumulate
ral
receipts
ota
##nell
##ublic
##d0b
dispatchers
##inline
##ba3
abstracts
populates
prntscr
##mixin
jelly
pty
##cd8
trie
##yyyyyyyy
industrial
##vc3jjl21haw4vamf2ys9
##engineering
azured
##escription
witness
##fe5
gossip
strips
oled
##a0c
0x70
##computed
##ttext
lgpl
##too
coredns
##assignment
##fe2
##56b
kicks
t5
jerry
##peak
nap
db2111
containerbase
idt
freely
relev
lunch
##olist
ols
##regular
bluemix
##printer
903
origami
fontsize
##webcontent
##phens
##17e
carriage
##gallery
##ranet
sublim
##af5
simples
##castexception
##fa5
xa
guice
localize
puppetlabs
0x01
redshift
suits
##ed5
##coco
bene
##life
studying
laid
shu
rubber
##ppelin
disclosure
##aky
backlight
##0002
##59b
xeon
ves
mjs
##yy3pnvwwk3tul52hs4dfuvexg43vmwvgg33nnvsw45c7nfsm4gtz
diego
##uitest
henry
pusher
sni
roaming
##fa8
ie6
rera
zot
fluentd
##5cnfsm4hm6
##sr
debugfs
##compute
##50c
##ef8
##uilder
3600
pedantic
##11e
##ynchron
##armor
earn
##ab17
##50e
##2eb
oleg
pythonic
##chooser
##compiling
##32e
##bb2
##52c
##c9b
prwarns
eject
##escriptor
##f0d
female
##short
jupyterlab
jframe
##comman
##orbis
cutoff
jits
##5r
reversing
lhs
headache
##o1
##53d
##6q
sie
lamp
cloth
percon
prer
wallpaper
cvm
##32f
orchestr
nal
nrf
simultaneous
##extra
gettype
wagtail
1997
##90zxn0
vs2010
convergence
ime
##12c
##f5b
##befor
##kull
##55e
##이
disamb
openmpi
x4
monitored
survival
##dfc
stepper
constrain
##13e
queryselector
##encv
inspections
refund
1011
##lloader
lil
##erecord
file2
tlsv1
baked
unofficial
##navig
##hex
ipm
##mutable
##dhm
doors
pertain
grained
##elinks
##89a
designers
##mor
ambari
ggplot2
ipaddress
uo
ili
mse
maptoregistry
5et
##getquery
acid
mce
##develop
slip
##ancnfsm4hm6
dds
##zier
dmesg
upto
smarty
otg
xv
schematic
##orgorg
##90d
##wns
##c8b
ubuntu16
stronger
g3
##shop
dereferencing
siblings
timespan
##avis
probable
##theon
##a4c
bign
##perl
recognizes
gameplay
##hou
soa
isnull
lig
contradict
##54c
##opro
vvv
##pedia
##instant
##ahn
##ublish
ides
pte
##66e
##af2
##develo
synonyms
fsevents
##a9e
libuv
yuv
##aacf80
##gment
##gistics
webstorm
##iii
##aw9uc
##iforn
8a80808a657
##aacf801657
8a80808a657aacf801657
doe
##icion
antd
oddly
flickering
testable
message12
tong
sss
assure
g4
agr
##ereference
##ccd
##c09
governance
keeper
##comes
##illo
##ae2
qbitt
scraped
##refresh
gom
##f0e
dose
frankly
cj
preserves
##matcher
twsrc
seller
dangling
sampled
uise
##86e
charger
##e08
snoo
insider
##remove
##behind
linters
xmx
4gb
attende
20px
handed
blindly
dedicatedserver
##enotes
hth
empt
dequeue
##bd8
##aken
turkish
##cd7
h2o
##clas
codepath
kry
5etfw
hir
##gv4
algolia
##1200
##stacktrace
771
sx
yp
nslog
unwra
##ca1
tao
neighbors
##b03
biztalk
messes
actionable
4x
##jin
von
restores
untrusted
##20c
dndebug
##commons
opponent
##antis
testthat
softmax
##synchron
slime
circumvent
gsl
cup
coreboot
##etti
coredata
jss
##5x
extru
##icker
##buzz
decouple
table2
##iteration
65536
##bling
3g
engineers
l18
permits
disadvantage
apikey
##door
##fd9
inappropriate
tint
cognito
sshd
electrum
xlint
##charge
lubomir
cql
##echno
##trigger
decomposeactions
supposedly
##d0c
myb
##aa1
cloudwatch
filenotfoundexception
msr
##nic
wikimedia
##avier
franco
llc
##andupdate
prerequisite
taylor
struggle
momentum
eur
cljs
itk
andro
qrc
915
##오
##b06
##27e
sparks
##weaks
passthrough
##uino
leaked
902
##cb9
shelf
warns
termux
programmed
slows
##hoc
##pez
uint16
##kubekins
##initialize
prkubekins
autofix
##kle
vortex
humidity
rhy
rs6000
worrying
psycopg
appliance
##engl
##8784
bv
##99c
0003
##wis
##a2c
birthday
##achi
inflating
##f0b
kenneth
##bb9
pacman
poseidon
rpms
##fb3
dlang
sauce
computational
##nan
##hin
considerably
cse
##endor
recie
rcs
md5sum
seccomp
##locks
##liest
regional
disruptive
sqlstate
##ibl
kml
##0004
##fat
sigsegv
onceper
teh
cognitive
ambient
##mcu
godoc
epsilon
disposition
kic
proxying
tibor
mash
flawlessly
##dmlj
##mite
ets
shin
expressing
tomb
##2f8
intra
apc
##eader
##7d59
cgal
##beanserver
authenticating
##11b
##89b
##waref
autoupdate
##3by
nj
animating
##18f
##f0c
##18e
##y0
##utls
##bd6
unreviewed
1996
741
##mot
##pullreq
dotenv
##10f
##parsing
taucet
##2fa
smash
##bes
##cached
##lider
addressbook
##sted
ioannis
cours
##refer
chord
##toolkit
complet
##c7b
wen
ballerina
##be1
1007
keith
##zan
pist
pouchdb
##lopt
unaware
libq
frrpullreq
##84b
omitting
1064
##working
cyl
reveals
onceperrequestfilter
sns
##fa3
3306
exemple
##implementation
##19c
##a8c
batching
nuts
grays
cascading
slowdown
##racked
##18c
omni
20screen
steamapps
##3ry
libgit2
opencollective
##dcf
restrictive
hashset
##7s
1511
alphanumeric
##83c
colons
pron
2fgoogle
##4t
browserstack
uiwebview
resolvers
##1b1
costly
##constants
##o0
sp2
screwed
edm
gtk3
cloudstack
idiot
appendix
##d0e
payloads
cs2103
enlight
coherent
jsonrpc
##literal
##ensional
cdb
ntlm
##icomponent
dicts
downvoted
fxml
##dashboard
thresholds
##kzx
##boolean
fips
##writ
##hom
russ
uncommon
##cb3
##54f
paradigm
automapper
photoshop
kthread
nats
exhibit
##94e
qualify
v16
##df1
##2j
1054
patternfly
ooz
6th
##imity
##e01
fcn
##balls
##road
webservices
##99k
perl5
eligible
persisting
##iman
phpstan
##sta
dbal
cellspacing
##gluz
sven
1000000
##inesis
pseud
qbittorrent
##bd7
fsm
##a44
##ad1
##ieu
guests
liver
gamm
##music
##shape
lore
preconditions
needless
cere
yeoman
repeatable
uw
20m
afai
overw
californ
openlayers
arct
67d80f
unpacked
##1h
refuses
##90f
##3d6
ecommerce
syntact
pumpeventsfor
aus
##burn
artists
advertise
inplace
steem
slt
##a0f
##named
rpcs
representative
rhe
##checked
##networking
bfc
roger
soup
##helf
rasa
storaged
keydown
printk
refinement
nickname
##ae3
doubts
flipped
##dri
##58e
##1bd
resem
capac
##ping
2500
verse
##ef4
calendars
adaptor
statsd
dco
l19
altitude
harmon
fucking
q789
##prep
##cas
helvet
1l
neil
planes
##abo
disappearing
6s
##ec2
cntk
##a0b
dims
octopus
m3u8
##good
2k
anten
##assertion
##cq
##yang
##iris
octodex
##64d
surrounded
pmc
couldnt
numba
redemption
grants
eee
uniquely
peace
9230quickbooks
toarray
1060
marion
##uetracker
marvin
onwards
##28b
pvc
trimming
dgvz
##b3b
891
##mib
##96e
keybindings
complicate
handbook
disci
wdyt
boat
smoketest
pard
scar
resend
##stype
collectionview
gsm
##pict
srt
##agation
wim
##b09
thesis
##50a
##inding
iphone6
cke
##story
##instr
drs
reflector
solvers
##bc7
undesirable
gary
baba
arrival
lvm
thunk
adventure
readfile
##ec3
rebooting
standardhost
dosomething
giphy
0x16
confluent
feather
##deployment
##atom
leet
airbrake
2828
##news
pants
buil
##a9c
misunderstand
transports
trough
##f05
plumb
pretra
971
tcserver
##categories
##e3b
qmake
zeroes
##2ef
##allel
##assembler
dug
congrats
pogo
ancest
bcc
##isto
miguel
##2d6
gang
mirage
panzer
##grp
atmosphere
freepbx
1990
sitecore
##acion
16x16
justification
uktrade
jpanel
winner
maintainable
fiber
##plots
symptom
##88e
##etz
immut
voy
##b9b
analyzers
gaming
boto3
u2028
functionally
webbrowser
15008790
anime
##83e
film
mso
extragear
bent
violate
netbsd
##pending
untouched
stealjs
esb
multiplex
##dkversion
ucl
commitizen
bap
apos
##atly
##ce1
amire
##managers
##aded
jedi
##53f
creds
mcm
##immedi
cellpadding
##ab1
1113
##eb8
breath
##ville
##constant
rhsa
##asi
manpage
precompile
##rass
##lude
variadic
##latex
##cd3
##지
##alled
2781
##zxn
alas
##ican
##wdl
janus
behat
##craf
negotiation
##ebc
rmd
clouds
compositor
##quire
##3k
##leak
sonic
##ef2
##mul
3ds
##dkafka
reorganized
##54d
##amble
i´m
20e501
##f2b
sourceformatter
##allocator
##17c
##0k
##interrupt
configures
tik
5c201
readings
##50k
virtually
tiered
caveats
##ielement
##pac
##99b
dfg
##ifer
##istically
##92f
##bund
confidentiality
##bb3
evan
##icc
##z9
jsql
battles
##13b
beagle
vv
##a0d
flavors
##duration
sill
colin
ensured
testrunner
vuetifyjs
titanium
permutation
roster
##vz2x
formdata
sis
negl
##34b
bytearray
maut
##alse
##0006
translatable
deliberately
##rapper
##etect
##a6b
##a0e
vagrantfile
##95a
programmatic
##피
##bv
##gie
##ocket
resistance
##ilter
dawn
##b6d
mosqu
##eb6
##urst
awes
reck
##c4b
7c1
msys2
##emarker
##50f
##paramp
##tod
##f0f
helvetica
##f9e
kaspers
##ffect
##contribut
##demand
##amanager
##cd1
##idx
fname
plotted
subscribing
##c6f
inadvert
##e09
##cc3
##conversion
##askexecution
centralized
0xc42
##celerator
httpserver
postgis
##a4b
##hift
##x1080
axiom
1g
##f3e
##bble
enth
albert
905
irres
aggregates
##b3c
rcv
##rown
darin
8a80808a657aacf801657ab17
##ebb
22hint
##2222
##ounds
pantheon
##ecker
beneath
bloat
##89e
percona
##c2c
##etim
componentdid
erased
rtd
charges
##blur
└──
nikola
##camera
tamper
##lobject
ppl
phenot
oracle122
##ae5
nah
createelement
tensorboard
##staging
##pent
##ubuntu1
cus
moot
committers
temple
##55b
##partition
deltas
inconvenient
pulsar
##azine
exciting
fastcgi
##translation
791
##aad
autocompletion
pinctrl
7600
flume
broader
gpr
1006
99999
1300
valves
##observ
##bd9
##29yz
strongloop
981
l20
##cognito
interceptors
resil
##sserver
gross
##rak
headline
mathml
##gri
wps
padded
fiddling
##1011
##82b
notifying
binlog
unpredictable
##inbackground
amdgpu
zendesk
dalvikvm
##2vz
##stics
reraise
stanislav
##60b
captions
kont
cubic
proceeding
elk
quicken
lesser
procs
##o4
##genis
uin
gitorigin
##t1
quorum
artefact
##solver
relativelayout
upwards
ftrace
asl
srs
##cbf
##states
fpga
##36f
stage3d
mnemonic
##a5f
observerimpl
sail
##b2c
multidim
1120
databricks
##fe1
##fa2
champion
datasources
envirom
servicebean
##a5b
##e9c
segfaults
##merged
amirelm
reformatting
repack
smoothing
fellow
rpath
tdd
ksp
##99e
##ipart
##64c
##58b
eggs
##exists
dependence
alfred
##12d
organizing
720p
stew
l15
jupyterhub
##12f
convince
##slider
##unn
##asci
##uffix
fujitsu
##25l
kad
delegated
##orientation
##profiler
minimap
901
serg
emojis
##1ba
timely
##chromium
mysterious
##59c
##fb5
gfp
##ceiver
##agh
##ba2
kel
cfrunloop
##53c
##dcd
##etests
##seed
beet
pidgin
upvoted
geop
postprocess
minetest
aims
adequate
##ipop
subdomains
eastern
##heart
b03
ji
##cf5
objectives
##16f
##20d
##80d
sonata
##apd
##threadpoolexecutor
##c6b
proces
##powered
##uml
##ivo
##central
991
##94b
ephemeral
gaia
attendance
aler
##opoulos
##fair
kiss
##gdc
ridiculous
##atasource
##nod
##a2b
df1
##retro
rejecting
##require
julial
namespaced
##ee8
rewrites
spectral
crush
filtercombine
disease
##advice
oracle12
centering
curl2
0530
##bc6
deque
pixi
2fwww
activator
fileinstall
vot
##a4e
putty
whom
tapped
##ensed
socketio
951
##xecutor
preact
nacl
accel
curated
##scope
calico
pulseaudio
intranet
batchnorm
lineage
livecode
##ransformer
##mage
##fbc
kaldi
mbedtls
kaspersky
##ician
##9l
inferior
##disc
debt
pes
testers
##idea
beep
families
##c4c
##32d
opal
traversing
##d0a
geoip
miniconda3
outerloop
unselected
employer
yog
##14d
setcontent
tachyonproject
9161
disappointed
pon
collapsible
##eventlistener
zipped
##afd
##fbd
presently
##15d
##cb5
##edc
bic
osg
funky
filestream
stt
##bnrzl
dopp
100k
cv2
surfaces
##pres
##57c
##2e2
##idy
##alsmoke
##soap
coold
##strict
##apr
##olation
##a7b
##ongo
##odl
##3jl
##alsmokearchive
ssms
thumbsup
molgenis
##aspect
##a6f
illustration
extensibility
contentful
splitter
##10a
##a8e
##hy2
i18next
edward
multiples
tei
gists
uncover
graphviz
conntrack
abp
gobject
stopwatch
crossed
##b0e
flicker
msil
##iers
00000001
dropout
maya
offload
safelinks
sus
coalesce
amongst
nameerror
gord
nel
2freact
id3
pact
quill
hyphens
##1920s1
auction
asana
##callsite
quatern
##ee9
intervention
codex
##alia
024
##between
spinn
msvcrt
##quare
resizable
dms
##finitions
qtgui
dispatcheventimpl
enlar
stylus
##methodaccessor
##imag
pert
##complexity
shooting
##uba
##23a
richtext
kie
##a8b
usec
argparse
##f3b
philosophy
tilt
##b6e
##84f
orthog
##f4b
pyqt5
swag
synd
##c3e
armhf
authentic
getobject
knit
technet
qpid
##wang
julialang
libpthread
decorate
##stain
omnia
gx
codename
wires
risky
1366
rtf
##orman
##82c
7c01
##ee5
edd
##ulse
dockerfiles
tablename
s6
invoken
numberof
##omorphic
tektoncd
jonas
##upg
lld
cropping
superior
wet
dropzone
recurse
gyro
pipermail
##ccf
byu
##오피
kak
ncb
opencomputers
debate
##plat
harvard
ipp
##fcf
repetitive
##wvud
getproperty
##dd5
##addons
keepmin
timel
##y4
##86d
##f2c
probes
dependencyinjection
##pvm
psp
##bc8
##zxmv
20an
##idently
minib
##c8e
baidu
authoring
##zrh
##touchevent
##antly
##sexec
unroll
##cfd
##1k
##a3c
1003
reprex
##tte
defense
##b5e
actuator
applicationinsights
viewvc
##eb3
lowering
##a3e
grizz
imaged
##83b
rou
racket
responder
uniq
viewportalsmokearchive
sourcing
portalsmokeupgrade
##nown
drawbacks
vu
sqlclient
1982
2147483
ideone
fetcher
2fj
nosql
avs
##fbf
buster
applicationservices
##big
##cky
judging
##55c
##c9d
tapestry
##ijn
dad
tas
##9u
frm
clubb
##cd5
discrepancy
spoke
##classrunner
##oly
percentages
##essel
##f5e
##29vz2x
##5519
##gem
cgtnl
jdk11
splunk
nin
##bbd
##1x
##lens
spher
##kits
##c3f
4s
##etool
datalad
3x3
##58c
cooldown
kolib
##assin
cups
##20170
ingo
evict
blanks
casper
clippy
##repe
##ownload
##291cm
nasa
oem
018
gravatar
##opic
lenovo
callout
##zon
jaroslav
##classpath
v4l
krist
ay1920s1
##hill
indirection
chemical
##stores
##activate
flac
##locker
xwork
taskbar
tidb
##perror
enrollment
inaccessible
openra
##54a
##etail
##credential
inherently
##fb2
##introdu
##29d
00007
tolow
thre
xsi
tradeoff
sourcemaps
servicebeanmethodinvocation
##odriver
##secret
##priority
##stools
##preference
##b9e
##chj
protoc
storages
atr
stef
urban
##leopard
savetree
##b2b
rethinkdb
##bottom
oozie
##pic
##bbc
##beard
bytest
##a3b
notry
messagebox
sud
##immer
tmpfs
pretend
sdr
##uls
##f3c
encoura
##edo
##────────────────
##b2xs
unzi
ingredients
isr
1983
##60e
harsh
rsyslog
##t2
##c5b
4m
selling
pruning
##riter
##menuitem
##yard
moments
##igital
slam
##fc1
imperative
boneskull
gard
##texture
publiclab
surve
daylight
yosemite
bridges
vow
##pbmc
phill
collate
iobroker
kay
##pto
uf
illustrates
erick
##eef
##iana
##23f
##n3
##f1e
pant
xattr
ding
nvd
##cm9
opted
weigh
##2ns
##thre
##pokemon
##etom
scripted
##b0f
inspected
##f1d
##edf
019
##53a
##27b
trinitycore
reent
nms
keycode
##27c
storefront
##2080
overwhel
fractional
##007d59
databinding
emil
rhino
##dup
backoff
ranger
afs
##uta
##56f
##amethod
rebooted
##lvl
ath9k
bgpd
partitioned
##blank
##xtra
peng
##leased
happend
jem
cma
keyed
##eea
##kal
joi
##b250
icinga
wail
crew
infinitely
ffffffffa0
interchange
##otest
spaced
##prototype
##f7c
zeromq
##istrano
mote
##hbge
##c31
l24
gofmt
roland
##15a
##semantic
ddc
1146
ccl
rna
1810
##edate
andrea
mutating
##orke
##dhmv
l0
relevance
##12a
torrents
##xtensions
##e9a
##plusplus
##regex
gmx
##c05
##mal
nes
combines
volunteers
gathered
narr
subviews
faqs
1310
##ixin
rclone
riak
##f9f
unpkg
softwaref
##56d
1984
##16d
sha512
fancybox
##c9c
sentiment
smells
earliest
analytic
jaeger
scylla
monode
##enders
taste
##wat
rapidly
encapsulated
mystery
williams
5px
##a7e
abac
cloudforms
##versal
##ef9
##unknown
1450
catalyst
favourite
lj
field1
##c0b
##f8e
ufo
generatedmethodaccessor
funct
backgroundcolor
growl
##ffin
dsa
shout
euler
chromos
mautic
doh
form1
mavlink
wcag
##89d
cyan
zigbee
vapor
mup
##18d
##importer
powermock
lars
hamburger
hj
##atab
yosh
fell
##f8c
sabre
personality
##cfa
cull
healthcheck
mdb
squared
##n4
findall
030
iface
bubbles
manj
keyvalue
##13c
loadbalancer
aab
carrying
accesstoken
##lator
arth
##b8b
volley
##a5e
cnf
refactorings
khr
coldfusion
neuron
pleasure
##88d
fieldset
##9kdwx
findview
##16a
##voc
leetcode
1337
1112
##1100
1844
##drv
##xbvbmvudhmv
descendants
##ransfer
checkmark
downgraded
optimistic
dq
buildtypeid
##lash
##87c
pravega
eid
##l7
instructure
nvme
1486
##formate
rcnn
libd
magick
rab
crunch
##f6b
telegraf
marko
lod
multiplied
disadvantages
optimise
##lights
##vertex
distract
##86a
##foto
##allo
resur
scratchpad
snowleopard
resumed
##amel
##phany
##59d
standby
todd
drink
downloadable
##ptor
radical
isempty
incognito
cpanel
##0000gn
incidentally
##references
##3x
osu
tps
el6
fgpv
##atel
kolibri
moto
recovered
enclose
##o6
requester
prematurely
thunderbird
chuck
##easy
jsps
getelementsby
##ionio
fragmentation
##56a
obligatory
slc6
getview
##urred
##bd3
overriden
icloud
transpile
##f7b
##11c
##metal
mental
##guardian
##anton
##ec1
##threadpool
##n6
dapp
##cf2
##29e
mesosphere
psc
##14f
##e6b
springapplication
misspelled
touchscreen
##websites
##repl
hts
advertis
sai
responsiveness
unf
##7d4
eventual
##24c
alist
imprecisions
##2luz
clipped
sergey
##rated
##research
col1
##adio
##atem
iotex
starttime
##b8c
viewers
scheduledthreadpoolexecutor
##west
dislike
##2ban
ih
py35
##uuuu
##icz
typesafe
##strip
washing
campaigns
##d0f
mosa
##1y
##ixel
##40e
8a808
rbd
##isoft
##00k
cancelling
armv7l
avc
dai
##c0c
smoother
##9q
rssi
##ttt
waf
appstore
yunionio
##ione
##c7c
broadcasting
##57a
factoring
qubesos
oa
linkedlist
breeze
##57d
##players
clips
indenting
hmr
##22b
##f9c
##59f
##caching
tea
knife
##f4c
##52a
coroutines
xcodebuild
##fd3
epson
##efc
achievement
1020
30000
##b0c
##89f
y29yzs
##changing
ms16
##harp
kicad
##1r
nzb
##isek
1014
##55f
quantities
##wow
##junit4
blending
autolink
shock
##80b
grabbed
##26f
espressif
pct
##pson
##apets
hcd
glade
##c6c
conce
apostrophe
dependant
##hcm
##usi
##restore
l23
##2001
jitsi
##authorization
##filed
##fd2
##yeva
fbs
bike
influ
kinesis
##send
##50d
hann
1070
task1
rafael
squeeze
paperhive
moderator
defaultm
unity3d
potion
##pelling
cfg80211
myth
retried
fail2ban
worksho
tah
##c9e
derivation
##c4f
##cells
nits
poller
##qiecaaa
s7
1614
dance
mixture
##0r
projections
preinstall
summaries
omx
##4k
func1
##vio
##mbed
##26e
sarah
vex
colorm
##bluetooth
h5py
codeproject
alignments
prisma
shouldnt
aspectj
jaxrs
downtime
alenapets
alenapetsyeva
mature
bigdecimal
##f8d
##colors
##lok
leaning
##pressed
##dd2
##26d
fileutils
yegor
heaps
faction
2g
##switch
softwarefactory
blake
##lings
##intersection
##else
paket
tux
##icking
assignable
##c6e
##32a
visuals
sectors
##89c
##c8f
##f6c
##c2d
##idar
tui
torto
parallax
##icked
campus
timezones
slicer
vga
##a1e
xcuitest
zeppelin
roads
tidying
robotics
babylon
##arge
##1016
frant
adhere
disconnecting
##etta
##yyxr
q3
unmodified
diameter
##82f
tmpdir
##chg
##eb9
wallaby
findclass
uibutton
##8800
##astro
##80e
finn
##retry
therefor
##94f
##liner
##a3f
bugged
##onrails
swiper
lith
fallout
pillar
##oking
sports
sda
springboot
##ebf
bum
reappear
oob
##ee2
##7777
##abact3
##alab
tad
##energy
proximity
tempest
##urt
mds
arranged
bdi
##86c
##ganggang
factored
##88f
##cml
tizen
productive
##tml
gopher
debounce
flyway
##broad
beautifulsoup
jorge
capistrano
shoud
0xffff
liz
##c5e
##14a
##postprocessor
expertise
slurm
succesfully
narrowed
svgs
##arta
##a9b
mapnik
10x
patron
##prepar
optimised
consolidated
shen
fullcalendar
##84c
rerender
##13f
##19d
##b0b
##manage
hovered
##a7c
instructed
grizzly
bothered
##30f
##b5b
spoof
mothership
##enotification
0xa0
##fea
##ublas
customizations
##kari
##c1c
dnx
blogger
elast
eran
##obase
##a4d
syst
libjpeg
naver
chats
##b5c
piping
##29c
xn
participation
misread
rebar
##b1d
cffi
mrc
contention
intgdc
##ат
##eder
explosion
phpcs
##know
hebrew
darker
##systems
thyme
##17f
metasp
gav
bidirectional
paris
0xd
purchases
##schirm
phps
sca
fictional
cesium
l32
als
##84d
objectinputstream
##deprec
##locs
##3v0
##a8f
##ibus
##c0e
ise
jesse
multidimensional
explic
##af1
citiz
reinst
##cao
rsi
contacting
##stext
semih
0x1000
ffffff
032
userprofile
rul
hurry
converge
cidr
perceived
##idl
##bbf
homekit
bildschirm
sliver
vest
0xc000
buying
0x100
##18a
##olin
deskt
summarized
thresh
##alis
intelligent
intrus
roc
##aku
mne
broadinstitute
##a0a
##hton
octet
##ff1
##2e1
xmlrpc
blueprints
##21haw4
botocore
##publishing
fortify
##84a
##b02
bids
packagist
##zwn
##17a
rooted
##34e
lmp
##7q
blinking
##cd2
##attle
ctc
##b05
##e05
##xa
chroma
aligning
##olith
##vell
spd
handlerequest
##ae1
mismatched
##imentary
vmb
##dd1
uuids
1149
pydata
nicholas
bildschirmfoto
unintention
##mapp
##1014
##akit
##roe
##f3f
godeps
sandia
##gggggggg
##51e
boris
tobias
eet
gevent
##2400
beanstalk
upsert
##bd5
onstart
1536
m5
##otnet
prd
libretro
##ratio
##pap
##d6b
##estatement
valueof
phaser
##ahl
resuming
##b6f
##urere
pki
##ainfo
1017
darteditor
##oos
hostconfig
grades
##gos
7z
cwe
withrouter
##f0a
imdb
survive
##cene
retire
adapting
##iconnect
##mux
componentwill
##1lzrh
glitches
20send
freemarker
covariance
indexerror
##ulus
gates
jets
zerocracy
outcomes
##anz
0xf
orthogonal
##lag
qobject
1986
untracked
amar
##21e
saxon
easybuild
##29b
##cnt
##spath
hax
joke
##textfield
##cra
##labels
stricter
uwm
##2fb
scaleup
##c0f
waterfall
##rell
apiv1orgsiddelete
lengthy
gateways
trials
dfrac
eact
##c1e
##b8f
##eb5
##weather
workloads
ket
owin
ehci
xct
##rison
##2ea
1016
scl
npcs
compressing
023
biomes
eabi
##13d
mutually
urllib2
rephrase
coerce
##2w
10r1
##rank
lava
autofac
##3z
millisecond
l22
##b01
2fh
exceptionservices
civil
log2
##b4b
conclude
automator
hoist
xalan
##wegian
##amon
testresults
manjaro
022
##ubs
##lov
imu
##0625
exchanges
##atindexpath
finalizer
rkt
liquibase
##29vz2xll
##inside
xxxxxx
##a6e
mpich
##o8
##utch
##yntax
patients
sheriff
hubs
mpm
##oia
notable
##d4e
##motion
roy
ladas
discovering
iff
identities
##zxj2awn
neighbour
dispatcherservlet
##dlg
poms
florian
##received
##lcy9
##fors
1184
logistic
locality
##casts
1012
##eb2
##steps
##87d
respawn
chg
paramiko
##58f
procedural
##mane
##xtype
hooking
##b4d
##98e
tightly
sendmessage
norwegian
##cb2
uiprocess
027
vh
unh
acls
lte
1985
kraken
capitalized
##e0d
##syntax
##imageview
1250
##eny
##apult
3m
##love
iterated
moderators
colab
listitem
affine
grayscale
pyth
ecdsa
libp2p
##junit4classrunner
dasm
hig
aircraft
ghz
##f1f
restricting
rrd
classical
interacts
##pter
##iah
swim
20can
monos
stephan
voxel
ssrs
##17d
##ikh
##b1f
cfs
##stically
lvalue
specificity
dumprend
##ef3
##00c
automag
folly
whereby
epsft
nopt
gamepad
lorem
defaulted
##a6a
mybatis
##11a
##y8
##ctype
flawed
sofa
##f8f
zipfile
sustain
tq
##lave
urlencoded
whitelisted
economy
mrt
1067
mfd
curator
java8
orphaned
##nie
eo
##36e
settled
mks
pthreads
faith
##7t
bryan
##25b
##nlcnzpy2
##nami
pss
knex
##transactions
rdi
##ef5
flies
inversion
##ervers
comedi
spikes
##eturn
##b1c
rejects
uiapplication
##c5c
##90a
encouraged
jitstress2
##acces
pinch
jbpm
##uple
##timestamp
getc
##80c
##c1d
hql
rdoc
##htoken
emman
net4
##f2d
tidyverse
kis
##hoo
flesh
##udg
yegor256
endl
monodevelop
pdfbox
uilabel
retriever
##b4c
mfr
ladislav
extruder
stalled
ont
reflectivecallable
cfb
##59a
lukas
blockstack
##proof
rho
##geek
pico
unfam
subproject
ic2
##64a
gained
singletons
vtable
contacted
1056
trivially
##a1f
##ablo
paw
##topdf
afaict
clement
convoluted
##clide
getid
##36c
waz
nad
notfound
findviewbyid
##rose
pretrained
##caster
##inality
log4net
council
ntop
zm
researched
1022
translators
jinja
rectangular
tablets
##calc
classcastexception
##b7c
maze
##cbd
##ington
loggers
##a1c
attributed
collide
##anging
tokio
influxdata
##22c
##k9
california
vouch
rakefile
hrs
nans
avx512
##3w
famous
advertised
##udhjvb
##law
veclib
rewind
biom
##f1c
##a4a
officedocs
##a6c
garage
##agn
pace
workable
##d3c
oof
##rlcm
typedefs
mutual
quadratic
docbook
motors
1026
isystem
##until
babelrc
##e4c
ngr
cglib
##d7e
##tober
rings
cypher
statics
uiimageview
pango
##eworks
asia
fulfilled
##privilege
habitat
cryptic
spinnaker
##60f
inks
##b6b
merger
##jdglvb
interfering
##f7e
##urd
ttbar
##2positive
elimination
##websocket
##agedecoder
##ycy9
geocoder
huang
authz
frantisek
16385
##ferred
dismissed
##ebd
invalidoperationexception
##immediate
##imap
unsatisfied
scot
mdp
grp
##ructions
lifecyclebase
##sproject
1994
headset
sla
##a4f
##f5c
objection
gammu
phpmailer
easyconfigs
##ucer
##lio
gnutls
##kku
suffixes
fest
mr1
1030
getopt
1040
highlighter
##etical
mdx
decrypted
azurermps
1187
wkhtml
ror
tiger
##f5f
unmap
axe
4g
stellar
irrespective
defun
atmel
openblas
nodegh
##buddy
methodname
valve
gaz
rated
##bold
julien
##b3e
unfamiliar
##elector
anomaly
##abytes
kudos
##abol
sendmail
##ampler
pleas
projectile
doubled
customise
ioth
m0
gtm
2607
opentrons
classroom
chap
sdc
##recovery
##slot
##ulti
annual
##allows
classified
psycopg2
pmu
##llllllllllllllllllllllllllllllll
##ourly
##26b
##b4f
##compare
fqdn
avx2
crossing
##interpret
##e089
pullrequestnum
snapd
gnat
gk
thymeleaf
0x90
pagespeed
colleagues
16px
sincerely
subsets
##y6
parametri
smar
dramatically
warrior
##zxr
##gre
##venthandler
##70e
bcl
qualifiers
mingw64
interactively
##lis
checkpoints
##70b
##timebound
tasm
metac
intrusive
oup
nltk
l21
##unky
jqueryui
##composite
##28a
##eready
geckodriver
libgcc
1110
origins
##85b
rubyonrails
##bool
checkpatch
writeup
1153
1019
prelude
##eria
hotkeys
disconnects
indexpath
lein
##injectiontimebound
##oung
##e7b
##aru
exhausted
##cb1
spu
servlets
##atag
l27
##launchactivity
infix
stol
ensemb
laws
##39d
messag
buzz
##hdpi
jboss71
##zlnb5
##areness
apollograph
##노
accelerated
##aprovider
freenode
keyup
nation
0xb0
gogs
neos
disqus
adf
##boards
reordered
##bolt
flickr
ieee80211
##82a
caf
##food
jordan
monero
mtr
sticks
vsix
xh
##arent
##b7b
##hunt
##36b
##producer
1554
##mdaw
tow
##attachment
##getqueryparamp
1138
revenue
hostnames
##hch
vw
recom
##initialization
recieve
bizarre
##hooks
ns7
mcl
##99f
##ywx
insertions
##2f5
rdma
zipkin
##f4e
##c7e
##atos
##b6c
cleanest
##wag
initiative
##criter
##resolution
bitnami
matthias
desper
##lng
##ered
##generated
samtools
##fund
probabilities
##aired
##erepository
intial
##c2l
gutter
##ablename
libssl
vst
symb
##n5
##stag
omniauth
resident
##combobox
##e2b
931
unimplemented
##tbl
##hello
2findex
##95b
##38c
##allocated
pend
restic
ie10
negligible
20in
mantle
##f5d
cyc
orchestration
##protect
##uffer
##2f2
##13a
everyday
##iture
digium
##c4a
##direction
1aj
##ptransport
##4w
beaker
##rogate
##placement
supertest
dlopen
##een
organizer
libb
##ivi
##c5d
viewmodels
preflight
rethrow
##roles
##dispatchinfo
##jjl
grok
foam
##90625
##37e
##n8
ozone
catapult
##96c
kalt
##e4f
milos
occuring
federal
##51c
gnupg
overdue
##ewindow
hrl
exceptiondispatchinfo
##notfound
smarth
##e7e
##92c
inp
orientdb
barri
maths
libcrypto
reformatted
k2
redefined
##versity
styleci
##22f
##aelement
deprecating
spline
bitco
mms
##annotations
100ms
hungarian
dwarf2
##timeline
subnets
##fa1
##d3f
magisk
recompiled
reflections
##seen
##evice
##weet
##isis
ress
oscill
trycatch
methodology
##emplates
rolls
frameworkservlet
orchestrator
##akt
blockly
##chs
locating
1130
##opp
z5
untransl
amq
050
apidocs
exploitability
##far
distrib
bulma
zalando
##b9d
agrave
rit
##trees
##fileresource
1992
qtwidgets
surn
lxqt
broadcom
permissive
df2
##e7c
##wen
autocommit
occupied
##nak
rte
ingame
##chool
##delta
##o5
provin
canal
##drawable
##sexecuter
##needed
prohibited
billion
ald
compressor
booted
##clang
spyware
##rcon
##eworker
unicast
mitm
enviroment
##iza
##parallel
##94d
7ff
comic
synthesis
##e9f
worldserver
hresult
evm
analogous
##atio
whee
##22d
fate
1134
institute
continu
naz
amber
rapid7
redes
##e9b
1116
##e9e
deviceid
abbreviation
flaws
konstantinos
##ilty
discarding
geof
publishers
arcade
##ractical
##d6f
metasploit
newcom
##d4b
##37b
dirt
##24d
##55d
maintainability
##aw5nl
ward
1013
##6t
##su
destinations
##d7b
marionette
##a1a
##44b
muted
##66c
nitpick
##fieldname
##e0f
lip
exped
autoloader
emote
onesignal
##aching
rvalue
##77a4
brit
1474
currencies
githubpost
##deployer
1995
##60c
taught
entr
libgdx
##f4d
##ulture
msm89
synthes
piz
hxx
datacenter
1044
azurewebsites
##ihf
jup
cubes
brevity
##instances
cronjob
serenity
ebay
l25
framed
itemid
proved
sdb
formating
##rawers
premise
30s
##iali
hubot
yank
##wil
##connections
worksheets
twist
primer
##userid
hotels
dbeaver
##pby
ahmad
spine
##a2a
daos
getaddr
winrt
##ajit
curses
20name
conso
##38b
##b9c
uci
##uchs
##24f
##c7d
##a5d
schools
100644
bingads
nerv
##esty
1186
salv
uicollection
##w1l
##1012
denote
openr
c20
stim
lame
plants
ike
ovs
tear
##29a
##21b
tryed
##asha
q4
don´t
uchi
abnormal
##ca30000
##corp
##dto
##plet
dropwizard
applicationcontext
##addon
##y5weq
##feld
scary
8a80808a657aacf801657ab17ca30000
##9v
##pzw50
##otr
##rabbit
##92d
drastically
ellipse
##c3a
startswith
##35b
##stit
xu
0x28
azuread
releasenotes
myfile
gradually
flower
ammo
##🔅🔅🔅🔅🔅🔅🔅🔅
assertequals
##orter
##iley
aliased
gcstress
##7d7
ipsec
semihourly
jg
tai
deemed
##c8d
heuristics
vectorized
##iru
ue
##existing
##b7e
onion
##ela
pooled
##99a
idempotent
##llipop
1124
##fixes
hesit
textblock
dying
spelled
##mend
##b4e
##b9f
##c7f
##culus
calibre
wasnt
1136
transitioning
##mons
##highlight
enumerated
##manag
seal
eva
##aurus
##antation
1517
dap
appdomain
1058
advisories
mbox
1057
snowfl
centreon
amz
##aaag
complained
standardengine
geoff
##30e
##blade
jir
level2
sencha
tldr
zt
32768
##factoryimpl
daedalus
##intree
##35e
bothering
##8300
##ovsky
1009
1053
##a6d
saltstack
k1
##27a
reflecting
##lete
duty
##decorator
contextmenu
##interaction
hyperlinks
postbuild
##rence
sidecar
##66b
intercom
##87a
##enav
##cycle
##s0
theorem
##chest
##incorrect
##1213
definite
storagedrawers
hopes
cheaper
32m
yows
emission
##c4e
chime
##conda
100mb
##scrypt
tat
##toh
##thm
##4q
##fb1
minification
0005
l29
hellip
disallowed
abstracted
trades
##bd1
as3
activex
refinery
phalcon
ape
geocoding
##f9a
subqueries
##vzh
framerate
##30b
##localserviceimpl
reform
seeding
##e6c
ndash
##ba1
lastest
rendert
vod
elevated
precondition
barn
fedoraproject
060
kz
harry
86o
clarifications
##rox
pyeval
nonzero
vili
hobby
signer
##was
##falls
apollographql
panes
tojson
##relation
darknet
##e0c
emulators
mtl
accelerometer
kubecd
##ee3
enddate
boxed
##37c
hackathon
nonexistent
ajv
resumes
##lya
sina
nvarchar
##lexec
##a9f
##c1a
klein
##lfile
2fb
##slt
923o
##b1e
centers
logg
cloudc
##raz
extractentry
##b5f
cfe
lombok
##c5f
##94c
##tester
##26c
##acrit
jerome
yamllint
##intro
1027
##c0a
shops
guesses
labelling
1607
metabase
##f7a
##iba
eks
accounted
capitalize
fns
badger
##lit
##d5b
subjective
##88a
##wb25l
yard
abe
fenix
##67b
1700
##r9
##c8c
bitkeeper
##bb1
##7x
tian
testget
##servicetest
##7d8
##forest
l28
##c4d
mergeable
025
yowsup
protos
torture
unist
##published
born
netkan
orion
##payload
##b8e
prismjs
torque
mplayer
odds
##omer
dedup
kag
1005
kip
reintrodu
##11f
registries
reactiv
synthtool
1157
l26
emot
##lectric
xarray
1118
0xc420
6m
##hap
fron
resin
gek
##qiecbagaabag
ultr
##radius
##d2b
##nrl
##e4b
suspicion
##a5c56
joshua
powerpoint
2px
##acci
cot
##fileresourcepack
fmlfileresourcepack
n0
transcription
actionscript
##anvas
nate
cim
julius
1034
mobilenet
dnf
meat
manuals
u003e
servicemix
##hee
x10
##eu
##oroot
uncommented
1117
2fmo
##gov
dynamics365
##phantom
ties
##2q
mobiles
##aft
twin
commentary
gpt
crd
friction
0xa
flatmap
c3jjl21haw4vamf2ys9jb20
##2d7
nuspec
syndes
sourcecode
spice
##28e
l30
reservations
denis
thermost
abcd
1804
##distance
interests
##dz
thi
1920x1080
cs0
erroneously
##a5c561934
mug
##67e
##rand
vad
ceil
g0
##a5c561934e089
unmapped
##eadapter
vive
fsync
warned
onresume
##question
adjusts
updatet
##single
##picture
reconstruction
neglect
startactivity
inodes
##presenter
vgg
b77a5c561934e089
shading
ancestors
ys
segmented
dqt
lwip
##h9
marcus
bdb
equiv
deeps
verd
manageable
wcs
stomp
kol
##owa
##iya
##callbacks
ooops
interior
freshly
##composit
netif
pok
syndesis
##modifier
breaker
kob
ensemble
##manual
jiri
webpages
vanish
autoscaler
##83a
dune
32x32
##ursor
##c6d
opener
abstracttestrule
##vuz
visualizations
syncs
##f4a
1145
randomness
anderson
2fr
bou
senior
mri
bobby
acct
bleeding
decomposition
ecto
sniffer
feet
##icago
3as11
autosave
rms
8k
##ogene
hwmon
celebrate
201911
##compass
040
##f6a
##8200
reminders
uinavigation
hehe
bik
##34f
javas
vcpu
ppm
2fdefault
mako
##john
victory
##ulty
1194
unloading
arithmeticload
xmr
mamp
1152
liking
tcc
webroot
##fork
##21c
##exact
##adevent
enigma
qlc
engagement
at91
##f4f
basedir
##pproject
autostart
17763
deadlocks
resx
##ulib
viet
relied
##hoe
pybind
avd
majord
unmarshal
##journal
hosp
educational
hamm
continually
fulltext
30319
fract
texlive
heh
jared
obfuscated
1008
##pvn
##ulk
1127
bcbio
##e0a
toru
zwave
##e4e
cyclomatic
##jdbc
##f8a
ionicframework
dab
creep
##sg
oncomplete
##rides
banking
filemanager
xstream
datetimepicker
defeats
##bun
singh
shiro
##ivan
##c9a
milit
oreg
##ymphony
##33f
##choice
oi
sap1d
##modes
1650
##cand
zotero
##etag
servername
##balanced
##b4a
##80a
1204
##85e
nsdictionary
dangerjs
origs
dmlc
##35f
projectid
1809
##tcp
docus
##25e
spm
alpha1
innovation
popc
1066
oes
1230
##e5b
getresult
directional
waiver
substituted
pluggable
##adapters
compensate
##igan
cde
loadcontroller
##arius
appsettings
aem
ncbi
provisioned
##printstream
rtx
##sqlite
##c0d
##ecycl
xmm
neur
##estone
bite
ae2
##ttime
elite
##f2a
##opsis
l34
freelist
clinical
##spaces
1037
##c2a
dcmake
prefab
##asyncresult
##azn
verilog
##bye
##77e
##icky
##a7a
aosp
##27f
##ubi
##dell
mercury
alexey
slowing
##55a
##aska
readily
alloy
fontconfig
##81e
armv6
retaining
##detect
##ultor
omega
doinbackground
##pecial
doctest
vs2013
##uate
##a5a
distributing
receivers
soundcloud
waypoints
prominent
0xe
manipulated
##mbase
recalculate
1553
##bee2
##udb
lzma
mck
##declaration
seamless
##97e
watches
1504
##qui
viliam
##aug
1159
yade
libpython
gsa
##arduino
pyobject
spill
career
tentative
##failederror
bulb
sls
##zlci
##othy
##vak
##sz
destro
##jbg
##avy
##arocks
sheep
##atlas
hacktober
##bou
linebreak
##21vzgv
##efd
svt
errorhandler
wallets
inert
##e1c
xpi
differing
##evaluator
2fabout
origsvn
wether
1164
##36a
proportional
##mil
interp
marek
inotifyevent
wot
##00d
rin
##a1d
polyline
##adair
randomized
##emodule
##d9e
##b5d
##lcn
teachers
polished
##markdown
ilist
##b3vkl
scapy
theod
##2xpzw50
thrust
yarnpkg
psd
1114
initializ
ond
##irk
integrator
rusty
improperly
alc
dps
##efa
##hail
dynamo
##nryb2xs
codebuild
##f1a
##d5f
##1023
decreases
##34a
theia
##inux
1407
adal
##e8c
##fabric
##d3b
##ergy
unions
marcel
field2
cc1
1119
geod
aero
##adt
combinator
rtl8
##99d
libboost
##24a
##ranch
##b8d
kaltura
lap
1032
ejb3
##35c
untranslated
uservoice
##enh
serviced
##d4d
errorcode
##66f
##iscroll
##l6
tileentity
##angu
kingdom
supplies
incorporating
##cak
##e5f
edit2
1154
user32
##1015
##opens
##70f
##hawk
promised
isomorphic
##e0b
thickness
bazelbuild
##b7a
schematics
deriving
welcomed
expens
##libr
conforming
1214
##github
037
lisa
rudimentary
awesom
tvos
##33e
##c5a
k8
donations
projectname
60000
standardwrapper
mosquitto
swc
desktops
rik
##25c
gluon
automagically
9443
crude
defaultlist
##generation
##curity
tasmota
devil
justified
20080
bypassing
webprocess
node1
##uptod
nmap
##eco
dennis
berg
##yxj
openal
0x1b
##usic
##f9d
##ushi
rultor
avcodec
signaling
spamming
##jpeg
readdir
convex
##d4c
bison
##cocoa
enforces
##iab
remembering
splitted
##estim
1033
o0
##00f
ld7
peaks
exhaustive
##idate
luarocks
heig
trut
##d8b
##automator
vcproj
##b9a
workshops
ratios
snooze
onmessage
##bc1
##eam
cdr
fstream
##synth
alm
sltapproved
##e6e
navigates
wlan0
defender
econn
##unittest
hikar
b2c
onmouse
##e6f
##acles
flipping
reactnative
##fullscreen
guru
##96d
tidal
cct
opensymphony
unification
dotted
cardinality
dre
spdx
unbounded
##vci
soil
modelling
##d9b
redeems
8100
##urf
architectural
dokku
jakub
##badge
dyld
polishing
obo
follower
youtrack
enumerator
vb6
spor
pym
##acly
gsp
extents
defaultvalue
cfme
astr
paren
python35
symmetry
1099
skipuptod
haw
sweetalert
discriminator
##e8f
##70a
##stagedmodeldata
##nacl
sucess
##39e
1123
dsn
##enta
mangling
morgan
opr
##지노
c3jjl0
##1p
##2304
pypa
##yped
##2005
vignette
iwlwifi
cardref
reorg
##34d
genetic
##odds
##lnrz
mca
##ecar
##41e
hou
appenders
fou
cattle
##ashima
##developer
eating
kart
##escope
gruntfile
roundtrip
isot
##cog
13326
##tj
selective
maxlength
prompting
failsafe
1018
##commun
deis
##aton
networkx
##stamp
experimentation
jiff
##ywj
##27d
reflectivemethodinvocation
oro
##anet
##hero
##zw5
##a8a
##ᅡᆫ
tinebase
interpolated
##d3e
reworking
##berger
pbs
##weaver
simplepluginmanager
##b7f
advisor
fifth
##uzzle
middlewares
cdt
##000000000
##34c
dumprendertree
##wich
ppc64le
mile
dateutil
##e9d
dct
dick
awareness
correlated
ngmodel
proving
##60d
##anto
##bw9
##hem
##jjjj
lovely
podman
##▒▒
##athub
##temp
filament
utilized
geometries
alphabetic
##카지노
pausing
memor
wn
##jsp
2346
##fbuzz
##imen
recordings
##again
inadvertently
embarrass
##ghw
##b3f
victim
nsurl
##51f
collects
contexthandler
##b6a
exhibits
##f3a
blacklisted
##c3n
##ivari
1025
##7d6
owning
keybinding
2h
ftb
##forced
onactivity
batter
##pond
expander
##e3c
borrowed
braintree
rdx
queuing
marshm
btree
##issa
parrot
1803
##67f
##unda
##bour
##ubject
gpx
apiversion
1052
##cmf0
adult
msb
bld
##empl
##composer
##wars
brett
lifting
##acters
##tob
aggregations
tidied
twbs
##3d4
reenable
attitude
##49a
jeffrey
derek
##30d
##reed
cfm
multibody
##yms
##leon
##expand
interprets
packagename
##51a
1503
picasso
blt
##lev
1084
paginator
##getter
##ensors
##2f1
syntactically
reporters
streamer
##68e
##occ
##ст
##udhjvbgxl
marg
1029
retrans
##edu
admission
##acher
gdpr
##e3f
internationalization
##d1d
##e0e
##itiveservices
cofhcore
1094
deads
itemname
##ᅥᆫ
##irst
2fmocha
tribble
artsy
adri
reconcile
datasheet
##e5c
resizes
netframework
javaee
itertools
##rpg
unaccept
##96b
brocc
lexicon
keyvault
establishing
dreadful
cycling
accelerator
cmdlets
12276
constructive
satisfactory
retired
##60a
1x1
bugtracker
laurent
european
glusterfs
chunking
inkscape
##allen
##9954
sequoia
##instancestate
##odbc
assertt
##gradle
mines
##e8e
##unique
crayon
aliyun
onkey
clap
ordereddict
tempted
reed
##4n
embeds
virgin
monte
stephane
datacontract
urlopen
##aaaaaa
##c9f
presentations
plaus
cfc
##jection
##94a
upside
kubeconfig
##orthy
##means
1177
##qiaaaqiecbag
sidd
##ᅡᆼ
explored
pfn
##ptime
##28c
##rotate
##e8d
##2d1
##jes
automating
##jb25
##ml0
##e3e
deserializing
pvr
mtime
##c6a
##9g
getfile
##58a
##arus
##ooo
hn
proxied
radial
##plink
ccd
##d1e
viper
##corder
##mov
2fsign
##estep
dentry
##legacy
dbc
jabber
##93c
epi
##81c
u2
##leave
20070
typedoc
logarith
##1143
geek
javaplugin
rach
##sdjk
##kze
##1q
##oundation
1106
##orr
##yss
1677
bearing
kmalloc
keyboards
##tcg
damaged
libqt5
fra
rudolf
##cribe
vbscript
xil
uiautomator
##22a
karl
brut
datamodel
louis
resteasy
zw
##e4a
##meet
gur
printstacktrace
ake
##buildactionexecuter
##hosts
fib
##mtab
##itters
jazz
domotic
42949
##arb
##1013
##abstractabact
conserve
nk
##e1d
zephyrproject
customizer
pids
##33c
buildtools
l33
squashing
0k
xim
##istory
##veness
##d8e
##38e
standpoint
ibb
wildfly110
##mlz
##85d
##4m
##2d3
footnote
corr
getattribute
tpm2
terser
purescript
iu
##formatics
copyfrom
tapjs
leveraging
##91c
minitest
investment
proud
joao
trustdomain
rasterization
wkhtmltopdf
door43
lamm
ivar
ticked
cocoon
hacktoberfest
##lox
lime
getbootstrap
##eselection
learnt
collectd
newb
1976
armory
##93b
14393
##a9d
##fhsdjk
##caffe
alike
delivering
hbs
##oca
##lds
plumbing
htmld
okta
1079
##20k
showthread
zncloud
##heat
replicating
gadgets
1506
callee
##two
truck
1137
movements
snaps
##ttask
collectors
rchain
##ns3
##d1c
tec
##may
allure
##d6c
weblogic121
thc
aaaa
boxing
##a8d
primes
8601
gordon
chase
wfs
##echnologies
aircrack
nativeconstructoraccessorimpl
sweat
q78
roboto
lew
shy
someday
##t3
##efinition
builder4
creatures
##d6e
##z2l
racetest
##dgv
##worlds
getline
6042
flv
##esting
jwplayer
##firm
##bases
##kid
tbb
20from
counterpart
1680
uef
exclusions
064
approaching
displaystyle
enforcement
##reply
##navigator
##adel
##3d7
nur
0000000
##osc
thankful
##anguage
##e1e
dataview
specifiers
step2
runn
deserialized
fillup
ctags
##58d
nsobject
##generate
misp
misplaced
##entin
##nnnn
jna
lockdep
cognitiveservices
mif
cobra
wad
##d8c
rcx
##transition
##7d9
namenode
vig
##amai
rewriterule
##third
trybot
restoration
readiness
blackbox
##flex
##d5c
httpresponse
moln
ucx
l31
globe
mitodl
##e2c
[...]
